unsigned char _mnist_model[] = {
  0x24, 0x00, 0x00, 0x00, 0x54, 0x46, 0x4c, 0x33, 0x00, 0x00, 0x00, 0x00,
  0x00, 0x00, 0x00, 0x00, 0x14, 0x00, 0x20, 0x00, 0x04, 0x00, 0x08, 0x00,
  0x0c, 0x00, 0x10, 0x00, 0x14, 0x00, 0x00, 0x00, 0x18, 0x00, 0x1c, 0x00,
  0x14, 0x00, 0x00, 0x00, 0x03, 0x00, 0x00, 0x00, 0xc4, 0x2b, 0x00, 0x00,
  0x80, 0x20, 0x00, 0x00, 0x68, 0x20, 0x00, 0x00, 0xb8, 0x00, 0x00, 0x00,
  0x80, 0x00, 0x00, 0x00, 0x04, 0x00, 0x00, 0x00, 0x01, 0x00, 0x00, 0x00,
  0x04, 0x00, 0x00, 0x00, 0xd8, 0xd4, 0xff, 0xff, 0x50, 0x00, 0x00, 0x00,
  0x2c, 0x00, 0x00, 0x00, 0x14, 0x00, 0x00, 0x00, 0x04, 0x00, 0x00, 0x00,
  0x05, 0x00, 0x00, 0x00, 0x73, 0x65, 0x72, 0x76, 0x65, 0x00, 0x00, 0x00,
  0x0f, 0x00, 0x00, 0x00, 0x73, 0x65, 0x72, 0x76, 0x69, 0x6e, 0x67, 0x5f,
  0x64, 0x65, 0x66, 0x61, 0x75, 0x6c, 0x74, 0x00, 0x01, 0x00, 0x00, 0x00,
  0x04, 0x00, 0x00, 0x00, 0xc4, 0xff, 0xff, 0xff, 0x08, 0x00, 0x00, 0x00,
  0x0d, 0x00, 0x00, 0x00, 0x05, 0x00, 0x00, 0x00, 0x64, 0x65, 0x6e, 0x73,
  0x65, 0x00, 0x00, 0x00, 0x01, 0x00, 0x00, 0x00, 0x04, 0x00, 0x00, 0x00,
  0x5e, 0xdf, 0xff, 0xff, 0x04, 0x00, 0x00, 0x00, 0x07, 0x00, 0x00, 0x00,
  0x69, 0x6e, 0x70, 0x75, 0x74, 0x5f, 0x31, 0x00, 0x01, 0x00, 0x00, 0x00,
  0x0c, 0x00, 0x00, 0x00, 0x08, 0x00, 0x0c, 0x00, 0x04, 0x00, 0x08, 0x00,
  0x08, 0x00, 0x00, 0x00, 0x08, 0x00, 0x00, 0x00, 0x0f, 0x00, 0x00, 0x00,
  0x13, 0x00, 0x00, 0x00, 0x6d, 0x69, 0x6e, 0x5f, 0x72, 0x75, 0x6e, 0x74,
  0x69, 0x6d, 0x65, 0x5f, 0x76, 0x65, 0x72, 0x73, 0x69, 0x6f, 0x6e, 0x00,
  0x10, 0x00, 0x00, 0x00, 0x98, 0x1f, 0x00, 0x00, 0x84, 0x1f, 0x00, 0x00,
  0x48, 0x1f, 0x00, 0x00, 0x14, 0x1f, 0x00, 0x00, 0xe0, 0x1e, 0x00, 0x00,
  0xbc, 0x1e, 0x00, 0x00, 0x48, 0x02, 0x00, 0x00, 0xf4, 0x01, 0x00, 0x00,
  0xa0, 0x00, 0x00, 0x00, 0x94, 0x00, 0x00, 0x00, 0x80, 0x00, 0x00, 0x00,
  0x6c, 0x00, 0x00, 0x00, 0x58, 0x00, 0x00, 0x00, 0x44, 0x00, 0x00, 0x00,
  0x30, 0x00, 0x00, 0x00, 0x04, 0x00, 0x00, 0x00, 0xea, 0xdf, 0xff, 0xff,
  0x04, 0x00, 0x00, 0x00, 0x10, 0x00, 0x00, 0x00, 0x31, 0x2e, 0x35, 0x2e,
  0x30, 0x00, 0x00, 0x00, 0x00, 0x00, 0x00, 0x00, 0x00, 0x00, 0x00, 0x00,
  0x00, 0x00, 0x00, 0x00, 0x00, 0x00, 0x00, 0x00, 0x00, 0x00, 0x00, 0x00,
  0xe0, 0xd7, 0xff, 0xff, 0x00, 0x00, 0x00, 0x00, 0x00, 0x00, 0x00, 0x00,
  0x00, 0x00, 0x00, 0x00, 0xf0, 0xd7, 0xff, 0xff, 0x00, 0x00, 0x00, 0x00,
  0x00, 0x00, 0x00, 0x00, 0x00, 0x00, 0x00, 0x00, 0x00, 0xd8, 0xff, 0xff,
  0x00, 0x00, 0x00, 0x00, 0x00, 0x00, 0x00, 0x00, 0x00, 0x00, 0x00, 0x00,
  0x10, 0xd8, 0xff, 0xff, 0x00, 0x00, 0x00, 0x00, 0x00, 0x00, 0x00, 0x00,
  0x00, 0x00, 0x00, 0x00, 0x20, 0xd8, 0xff, 0xff, 0x00, 0x00, 0x00, 0x00,
  0x00, 0x00, 0x00, 0x00, 0x00, 0x00, 0x00, 0x00, 0x30, 0xd8, 0xff, 0xff,
  0x00, 0x00, 0x00, 0x00, 0x6a, 0xe0, 0xff, 0xff, 0x04, 0x00, 0x00, 0x00,
  0x44, 0x01, 0x00, 0x00, 0xc2, 0x22, 0xea, 0x1b, 0x0f, 0xec, 0x0a, 0x2a,
  0x46, 0xf2, 0x7f, 0x01, 0x14, 0x13, 0x62, 0x0b, 0xa6, 0x0c, 0xe7, 0xd7,
  0xe6, 0x15, 0x17, 0xdd, 0x29, 0x1e, 0x0a, 0xe9, 0xe7, 0x23, 0xfb, 0x12,
  0x7a, 0x01, 0x09, 0x06, 0x17, 0x10, 0x2d, 0x1b, 0xbb, 0xdf, 0xfa, 0x41,
  0x5d, 0xf5, 0x0c, 0x1e, 0xd8, 0xfd, 0x33, 0xd4, 0x0b, 0xcb, 0xcb, 0xea,
  0xfc, 0xf3, 0x2b, 0xee, 0xd0, 0xff, 0x6c, 0xde, 0x7f, 0xc2, 0xd2, 0x25,
  0x0e, 0xd2, 0x4b, 0xf4, 0x1c, 0xf7, 0x14, 0xc6, 0x0d, 0xe3, 0xd6, 0x14,
  0x49, 0x12, 0x39, 0xfd, 0x01, 0xe7, 0xef, 0xed, 0xf8, 0xfd, 0x23, 0x09,
  0x34, 0xf2, 0x4c, 0x35, 0x16, 0x0e, 0xd3, 0x20, 0xff, 0x2c, 0x05, 0x0e,
  0xea, 0x1e, 0xf9, 0x10, 0x2d, 0x1b, 0x19, 0xc7, 0xd6, 0x2d, 0x3b, 0xd7,
  0xbd, 0x03, 0x23, 0x25, 0x93, 0x2e, 0x18, 0xdc, 0x23, 0xd4, 0xfe, 0xaf,
  0x16, 0xfc, 0x4e, 0x0e, 0xe6, 0x1a, 0x81, 0x21, 0x26, 0xe3, 0xc9, 0x02,
  0xe8, 0xe9, 0x2f, 0xf0, 0x33, 0x13, 0xe5, 0x24, 0x0c, 0x49, 0xe3, 0x9f,
  0x89, 0x48, 0xe9, 0x3c, 0xb7, 0xf0, 0xde, 0x01, 0x4e, 0xf4, 0xfe, 0xc3,
  0xe8, 0xeb, 0x23, 0x0b, 0xfc, 0xfb, 0xfd, 0xf6, 0x1d, 0x01, 0x0b, 0xfb,
  0x0d, 0x05, 0x05, 0x0d, 0xf0, 0x81, 0xba, 0xec, 0x0c, 0xe9, 0xfb, 0xdf,
  0xf6, 0xeb, 0xe8, 0xf7, 0x07, 0x0a, 0x0e, 0xff, 0xfa, 0x05, 0xf7, 0x8f,
  0xac, 0x00, 0x1c, 0x02, 0x07, 0xf2, 0xde, 0x11, 0x1a, 0x0a, 0xfa, 0xfd,
  0xd0, 0x20, 0xd7, 0x0f, 0x2b, 0x0c, 0x46, 0x20, 0xf0, 0x36, 0x36, 0xf4,
  0x3e, 0x24, 0xad, 0x3d, 0x1c, 0x4e, 0x02, 0x1e, 0x9d, 0xec, 0xdb, 0xf1,
  0xe1, 0x20, 0x44, 0xee, 0xfa, 0x94, 0x1d, 0xce, 0x2b, 0xfe, 0xd6, 0xe2,
  0x29, 0x13, 0x16, 0x02, 0x0b, 0xf3, 0x1a, 0xe3, 0x57, 0xf4, 0xfe, 0x81,
  0x55, 0xa7, 0x4e, 0xc6, 0xf9, 0xcb, 0x4c, 0xe5, 0xdc, 0xf1, 0x12, 0xea,
  0xcf, 0xd3, 0xc2, 0x05, 0x13, 0x1a, 0xec, 0xfe, 0xbf, 0x0f, 0xf0, 0x3a,
  0xe1, 0xdc, 0x1c, 0x0a, 0xf3, 0xff, 0xfe, 0x08, 0xf6, 0xf0, 0x07, 0x11,
  0x0c, 0xf8, 0x09, 0x19, 0x0f, 0x1a, 0xdd, 0xed, 0xc5, 0xf8, 0x19, 0x05,
  0x29, 0x0f, 0x14, 0xed, 0xe3, 0x05, 0xff, 0x12, 0x19, 0x11, 0xea, 0x7f,
  0x19, 0xfd, 0xe1, 0x0b, 0xba, 0xe1, 0xff, 0xff, 0x04, 0x00, 0x00, 0x00,
  0x36, 0x00, 0x00, 0x00, 0xfa, 0x7f, 0x11, 0xc9, 0x2c, 0x12, 0xbe, 0x22,
  0x1f, 0xeb, 0x29, 0xf0, 0xe0, 0x72, 0xb1, 0x28, 0x51, 0x81, 0xfa, 0xd2,
  0x67, 0xa8, 0x19, 0x24, 0xb9, 0x7f, 0xbb, 0x02, 0xf9, 0xfb, 0x52, 0xc8,
  0xe0, 0x7f, 0x3a, 0x09, 0x81, 0xc9, 0xfc, 0xf0, 0xf8, 0x09, 0x05, 0x23,
  0x0a, 0x36, 0x10, 0x0d, 0x5d, 0x4d, 0x5e, 0xf5, 0x7f, 0xfc, 0x00, 0x00,
  0x00, 0x00, 0x00, 0x00, 0x00, 0x00, 0x00, 0x00, 0x00, 0x00, 0x00, 0x00,
  0x0a, 0xe2, 0xff, 0xff, 0x04, 0x00, 0x00, 0x00, 0x5c, 0x1c, 0x00, 0x00,
  0xec, 0x07, 0x05, 0xfe, 0xed, 0x06, 0xf8, 0x03, 0x09, 0xfb, 0x0f, 0x04,
  0x09, 0xfb, 0x04, 0xf7, 0x1d, 0xee, 0x08, 0x03, 0xfe, 0x0c, 0xf8, 0x04,
  0xf0, 0x01, 0xea, 0x00, 0xfd, 0xf6, 0xf8, 0x07, 0x09, 0x02, 0xfd, 0x0a,
  0x0c, 0x08, 0x01, 0xfb, 0x07, 0xf7, 0x07, 0x08, 0xfe, 0x0b, 0x07, 0xff,
  0x04, 0xfe, 0xfb, 0xfc, 0x01, 0x0a, 0x14, 0xf2, 0x08, 0x0b, 0x20, 0xff,
  0x0f, 0xff, 0xfe, 0xee, 0x1b, 0x0b, 0xf6, 0x05, 0x10, 0x03, 0x06, 0x00,
  0xf2, 0x01, 0xff, 0x00, 0x01, 0x04, 0xf8, 0xfb, 0x04, 0xfd, 0x06, 0x0c,
  0xfc, 0xf8, 0x05, 0x07, 0x07, 0x10, 0xf9, 0xf8, 0xf1, 0xfc, 0x0a, 0x01,
  0xfc, 0x0b, 0x05, 0xff, 0x04, 0xfc, 0xfc, 0x05, 0xfb, 0xfb, 0x02, 0x04,
  0xf5, 0x07, 0x02, 0x0f, 0xfb, 0x02, 0x06, 0x03, 0x05, 0xf3, 0xff, 0xf6,
  0xfc, 0xeb, 0xf9, 0x01, 0xf2, 0x01, 0xfa, 0xf7, 0x00, 0xf2, 0x14, 0x02,
  0xfc, 0x00, 0x00, 0xfe, 0xfe, 0xf7, 0xf6, 0x07, 0x05, 0x06, 0xfd, 0x08,
  0x02, 0xfa, 0x0d, 0xf0, 0x00, 0x02, 0xf2, 0xfa, 0x03, 0xe6, 0xf8, 0xf8,
  0xfd, 0xfb, 0xfd, 0xf9, 0xff, 0xfc, 0xfc, 0x0e, 0x01, 0xf2, 0x08, 0xf5,
  0xf9, 0x05, 0xfe, 0xff, 0x00, 0xf7, 0xff, 0xfd, 0x02, 0x03, 0xfd, 0xff,
  0x01, 0xfa, 0xfe, 0xfd, 0x10, 0x00, 0xf8, 0xfe, 0xf8, 0xf5, 0x07, 0x03,
  0xf6, 0xf1, 0x05, 0xe7, 0x0b, 0xfa, 0x02, 0xf7, 0x03, 0xfe, 0x05, 0x0e,
  0xf4, 0xff, 0x0b, 0xfc, 0x04, 0x03, 0x07, 0xef, 0x04, 0xfa, 0x04, 0x06,
  0xfc, 0xec, 0x02, 0x00, 0x05, 0xf8, 0xff, 0xfb, 0x08, 0x05, 0xfb, 0x02,
  0x04, 0x0a, 0x02, 0x06, 0x0b, 0x03, 0x03, 0x00, 0xf7, 0x05, 0x0a, 0xfa,
  0x0e, 0x08, 0xfe, 0x06, 0x08, 0x04, 0x06, 0xed, 0xfe, 0xff, 0x08, 0x00,
  0x06, 0x07, 0xf9, 0x02, 0x01, 0x08, 0x00, 0x07, 0x01, 0xe9, 0x0e, 0xf3,
  0xfe, 0xff, 0x04, 0x00, 0x11, 0x08, 0xfa, 0x04, 0x07, 0x01, 0xfb, 0xf2,
  0xfa, 0xef, 0xf7, 0xfb, 0x07, 0x0a, 0xf4, 0xe9, 0x06, 0xfa, 0xff, 0x07,
  0xfc, 0xf6, 0x09, 0xe9, 0xf4, 0xfd, 0xfa, 0x08, 0xf9, 0x06, 0x05, 0x09,
  0x04, 0xfd, 0xf8, 0x0c, 0xf9, 0x05, 0x05, 0xff, 0xfe, 0xfe, 0x07, 0xfe,
  0x03, 0xf9, 0xfb, 0xf3, 0xff, 0x02, 0x02, 0xf6, 0xf7, 0x0a, 0x0a, 0xfa,
  0xf7, 0x09, 0x03, 0xf7, 0x0f, 0xf7, 0xff, 0xfb, 0x08, 0x04, 0x02, 0x03,
  0x03, 0xfe, 0xfc, 0x06, 0xfd, 0x01, 0x00, 0xed, 0xfa, 0x05, 0xff, 0x0b,
  0x00, 0xf2, 0xfb, 0x0c, 0xfe, 0x04, 0xf3, 0xf8, 0x08, 0xf9, 0xfc, 0x06,
  0xfb, 0x06, 0xfe, 0xf8, 0x02, 0x00, 0x03, 0x05, 0xfb, 0x07, 0xfa, 0x02,
  0x07, 0xff, 0x02, 0xf8, 0x09, 0x01, 0xf9, 0xf1, 0xfb, 0x01, 0xff, 0x06,
  0x02, 0xf9, 0xfa, 0x03, 0x05, 0x06, 0xf3, 0xf7, 0x04, 0x09, 0x09, 0xf9,
  0xfa, 0xfa, 0xfc, 0x02, 0x0c, 0x00, 0x05, 0x06, 0x0e, 0x04, 0xff, 0x02,
  0x03, 0xf0, 0x08, 0x08, 0x01, 0x01, 0x04, 0xf8, 0xf6, 0x08, 0xf7, 0x01,
  0xfc, 0xf1, 0x08, 0xfb, 0x00, 0xfd, 0xf9, 0xfe, 0x05, 0xf9, 0x00, 0x01,
  0xfe, 0x08, 0x03, 0x06, 0xf9, 0x04, 0x02, 0x00, 0x00, 0xf3, 0xfc, 0x07,
  0xfe, 0xea, 0xff, 0xfb, 0xfb, 0xfa, 0x03, 0xfd, 0xfd, 0xf4, 0xf7, 0xfa,
  0xfb, 0x01, 0x0e, 0x0d, 0x00, 0x02, 0x02, 0xfe, 0x00, 0x09, 0x05, 0x09,
  0x08, 0x04, 0x06, 0x02, 0x03, 0xf9, 0x07, 0xfb, 0x06, 0x07, 0xff, 0xfa,
  0xfc, 0x01, 0xf9, 0xf1, 0xf9, 0x04, 0xfc, 0xf4, 0xff, 0xf3, 0xfc, 0x02,
  0x02, 0x00, 0x02, 0xf6, 0x04, 0x04, 0xf7, 0x07, 0x04, 0x05, 0x12, 0x01,
  0xf7, 0x09, 0xff, 0xf0, 0x01, 0x03, 0xfe, 0x04, 0x06, 0xfa, 0xf5, 0x03,
  0x06, 0xfb, 0x05, 0xf2, 0x02, 0xff, 0x10, 0x0c, 0x02, 0xf6, 0xf9, 0x03,
  0xf9, 0xfd, 0x05, 0x03, 0xfe, 0x0a, 0x06, 0xfd, 0x0b, 0x0a, 0xff, 0xf9,
  0x03, 0x04, 0xfe, 0x03, 0xf8, 0x00, 0xf7, 0xf9, 0x01, 0xfd, 0xfe, 0xf9,
  0xf6, 0xf7, 0x07, 0x08, 0xfe, 0xff, 0xfa, 0x01, 0x06, 0x05, 0xf3, 0x04,
  0xf5, 0xf7, 0xfa, 0x05, 0x03, 0x00, 0xeb, 0x00, 0x0b, 0xfd, 0xfb, 0x00,
  0xfd, 0xfb, 0x01, 0x04, 0xf7, 0x01, 0xf8, 0xfc, 0x03, 0xf2, 0xfb, 0xf9,
  0xfb, 0xfa, 0x01, 0xf9, 0x0a, 0xff, 0x01, 0xf9, 0xf8, 0x05, 0x01, 0xfa,
  0x09, 0xfc, 0x10, 0x09, 0xfa, 0xec, 0x07, 0xfa, 0x00, 0xfb, 0xf6, 0xf4,
  0xff, 0xf5, 0xfc, 0xf5, 0xf3, 0xf9, 0xff, 0xf6, 0xfc, 0x00, 0xfd, 0x02,
  0xfe, 0xfb, 0x06, 0xf4, 0x05, 0xfc, 0xff, 0x00, 0xf9, 0x00, 0x06, 0xfb,
  0x02, 0x03, 0xfa, 0xfd, 0xfa, 0xff, 0xfd, 0x05, 0xfb, 0x01, 0xfb, 0xfe,
  0x02, 0x12, 0x05, 0xf1, 0xfd, 0xf8, 0xf4, 0x01, 0xf0, 0xfa, 0xff, 0xf2,
  0xfd, 0x04, 0xfc, 0x09, 0x02, 0xd2, 0x02, 0xff, 0x0c, 0x09, 0x05, 0x06,
  0x04, 0x03, 0xfe, 0x03, 0xfe, 0xfa, 0xfc, 0x08, 0x01, 0xea, 0xfe, 0xff,
  0x0b, 0xeb, 0xff, 0x09, 0x04, 0x02, 0xfb, 0xef, 0x09, 0x07, 0xfd, 0x03,
  0x00, 0xf1, 0x06, 0x09, 0xee, 0xfd, 0x0f, 0xfd, 0x02, 0x1f, 0xf2, 0xfc,
  0xea, 0x12, 0x02, 0xf3, 0x0b, 0xfb, 0xef, 0x04, 0x02, 0xf2, 0xf0, 0x01,
  0xf5, 0xf0, 0xfa, 0xf2, 0xf9, 0xe9, 0xfa, 0xf4, 0x06, 0xfc, 0x09, 0x03,
  0x00, 0xf2, 0xf1, 0xf6, 0x19, 0x10, 0xf8, 0xf3, 0x2f, 0x03, 0x15, 0x0f,
  0x05, 0xff, 0x08, 0xf9, 0x21, 0x15, 0xdb, 0xf8, 0x05, 0xfc, 0x09, 0xff,
  0xf0, 0x12, 0xe5, 0xe3, 0xfa, 0x07, 0xf3, 0x15, 0xfb, 0xf1, 0x0c, 0x0e,
  0xed, 0xd9, 0x01, 0xf6, 0x16, 0x0b, 0xe7, 0xc3, 0x09, 0xf6, 0x0d, 0x13,
  0x05, 0xd1, 0x0c, 0xf3, 0xdc, 0x17, 0xf0, 0xe4, 0x12, 0x01, 0xfa, 0xe5,
  0x02, 0xff, 0x07, 0x01, 0xf3, 0x06, 0x07, 0x0a, 0xfe, 0xff, 0xe5, 0xfd,
  0x05, 0x09, 0x1b, 0x06, 0xfb, 0xfe, 0x0c, 0x07, 0xfa, 0x03, 0x03, 0xfd,
  0xfb, 0x04, 0xff, 0x06, 0xf8, 0x01, 0x0a, 0x0e, 0x01, 0x01, 0xf4, 0x00,
  0xfe, 0x0a, 0xfc, 0xf7, 0xf9, 0xfa, 0x05, 0xe9, 0x04, 0xf6, 0x07, 0x05,
  0x0d, 0xf5, 0x05, 0xef, 0xfc, 0x06, 0x0a, 0xed, 0x09, 0xf4, 0xe9, 0x01,
  0x01, 0xeb, 0x07, 0xf9, 0xe2, 0xd9, 0x0a, 0xf7, 0x0b, 0x07, 0xf2, 0x01,
  0x0f, 0xff, 0xec, 0xff, 0xf8, 0x01, 0xfd, 0xee, 0x0c, 0x08, 0x03, 0xf1,
  0x05, 0x04, 0xf7, 0x03, 0x04, 0xf3, 0xf9, 0x02, 0xf2, 0xf9, 0x03, 0xfc,
  0x06, 0xf3, 0x08, 0x05, 0x18, 0xff, 0xef, 0x02, 0x0a, 0xf5, 0xf3, 0xfd,
  0x0c, 0xf1, 0x01, 0x07, 0xfa, 0x05, 0xf5, 0xec, 0x08, 0xed, 0xfb, 0xfe,
  0x10, 0xe0, 0x02, 0xe5, 0xec, 0xf6, 0x12, 0xf4, 0x04, 0xf7, 0xd5, 0xf3,
  0x03, 0xfe, 0x07, 0xfc, 0xff, 0xf9, 0xfc, 0xea, 0xfe, 0x04, 0x05, 0xf7,
  0xf5, 0xf5, 0xf7, 0x09, 0xf9, 0xf6, 0xfa, 0xfd, 0xeb, 0x02, 0xfc, 0x05,
  0xf8, 0xeb, 0xfa, 0xee, 0xfc, 0x02, 0x07, 0x00, 0x12, 0xea, 0x0e, 0xfb,
  0xee, 0x0f, 0x08, 0xf7, 0xfb, 0xff, 0x11, 0xef, 0x01, 0xf8, 0xf8, 0x01,
  0xf7, 0xfa, 0x06, 0x03, 0x04, 0xf7, 0x08, 0xf9, 0x01, 0xff, 0xfc, 0xf9,
  0x0c, 0xf8, 0x02, 0xf2, 0xe8, 0xfa, 0xfb, 0xfc, 0xfc, 0xf9, 0xee, 0xf0,
  0xf6, 0xfd, 0x10, 0x01, 0xfa, 0xf9, 0xf3, 0xff, 0xf1, 0x01, 0xf8, 0xfa,
  0xf4, 0xeb, 0xf5, 0xfd, 0x05, 0x0a, 0xee, 0xf2, 0xfc, 0xeb, 0xf8, 0x11,
  0xfb, 0xfb, 0xff, 0xff, 0x05, 0xfa, 0xf8, 0x02, 0x0a, 0xff, 0x15, 0x02,
  0x0b, 0xf1, 0x00, 0x07, 0x04, 0xfe, 0xf5, 0x01, 0x00, 0xf6, 0xef, 0xf9,
  0x06, 0x1b, 0x04, 0x06, 0xe9, 0xf4, 0x07, 0xf6, 0x00, 0xf1, 0xed, 0x00,
  0x02, 0x01, 0x09, 0xfc, 0xf4, 0xf4, 0x02, 0x02, 0x0f, 0xf8, 0xf9, 0xf7,
  0xf5, 0xfc, 0xe9, 0xf9, 0xfb, 0xf5, 0xf8, 0xf1, 0xf4, 0xee, 0xf9, 0x08,
  0xfc, 0xe1, 0xf2, 0xf8, 0xe8, 0xfa, 0xf4, 0x05, 0xf1, 0xfd, 0x00, 0x0a,
  0x09, 0x00, 0x01, 0xdb, 0x02, 0xf8, 0x08, 0xf7, 0x00, 0x02, 0x16, 0xfc,
  0x05, 0xf5, 0xfe, 0x02, 0x01, 0x02, 0x06, 0x16, 0xfe, 0x18, 0xea, 0xf2,
  0x0b, 0x07, 0xf6, 0xf8, 0xf4, 0xfb, 0xfc, 0xf4, 0x04, 0x02, 0xfd, 0xff,
  0xfe, 0xf3, 0x11, 0x03, 0xf6, 0xfa, 0xf9, 0xeb, 0x03, 0x02, 0xfd, 0x00,
  0xfd, 0xe1, 0x00, 0xf8, 0x0b, 0xfd, 0x00, 0xe9, 0xf8, 0xf9, 0x04, 0xfc,
  0xf3, 0xff, 0xf2, 0xfc, 0x04, 0xfe, 0x0f, 0xf8, 0x08, 0xec, 0x0b, 0xf8,
  0x03, 0xf8, 0xfd, 0xf3, 0x04, 0xf9, 0x02, 0x07, 0x02, 0x0a, 0xfa, 0xff,
  0x0b, 0xff, 0x04, 0x1e, 0xf6, 0xfc, 0x05, 0xff, 0xff, 0x02, 0xf5, 0xf8,
  0xfc, 0x06, 0x01, 0x00, 0xeb, 0xfb, 0x05, 0xfe, 0x12, 0x00, 0x02, 0x05,
  0xfc, 0xe4, 0xff, 0xff, 0x01, 0x03, 0x01, 0xd4, 0x0b, 0x02, 0x03, 0x05,
  0x00, 0xf4, 0x0d, 0xf5, 0x0f, 0x03, 0xff, 0xf5, 0xef, 0xf0, 0x09, 0xf8,
  0x0f, 0xd0, 0x09, 0xee, 0x01, 0xfb, 0xf1, 0x01, 0xfe, 0xf6, 0xfb, 0xff,
  0xf9, 0xf9, 0x00, 0x01, 0xe7, 0xfd, 0x11, 0x02, 0xfb, 0x10, 0xe8, 0xfd,
  0x01, 0x01, 0xff, 0x0c, 0xea, 0xee, 0xf4, 0x02, 0x0e, 0xfb, 0xf6, 0xf6,
  0xf9, 0x01, 0x08, 0xfa, 0xf8, 0x0a, 0xf4, 0xf2, 0x1a, 0x06, 0xfa, 0x0e,
  0x02, 0xe9, 0x1e, 0x02, 0xf8, 0x03, 0xfd, 0xf5, 0x13, 0xfa, 0x06, 0x0a,
  0x01, 0xe6, 0xfd, 0xdd, 0x01, 0xf3, 0x18, 0xd9, 0xfd, 0x0d, 0x09, 0xfb,
  0xfe, 0x0f, 0x09, 0x06, 0x05, 0x03, 0x00, 0x07, 0x02, 0xf8, 0xff, 0x01,
  0x0f, 0x04, 0xfb, 0x0d, 0xdd, 0xfe, 0x00, 0x02, 0xfe, 0x0c, 0xe0, 0xee,
  0xfe, 0xff, 0x11, 0x02, 0xf6, 0xe7, 0x00, 0xf0, 0x0c, 0xfe, 0xfb, 0xef,
  0xf7, 0xf3, 0x07, 0x00, 0xf3, 0x02, 0xff, 0xfb, 0x20, 0x04, 0x00, 0x05,
  0x06, 0xf5, 0x0c, 0xff, 0x06, 0x16, 0xff, 0x07, 0xf1, 0xe9, 0xf9, 0xf8,
  0x22, 0xe5, 0xff, 0x08, 0x0f, 0xfc, 0xff, 0x17, 0x0b, 0x01, 0xfd, 0x04,
  0x08, 0xef, 0x07, 0xf4, 0x00, 0xff, 0x05, 0x07, 0xfe, 0xfc, 0xf7, 0xf8,
  0x07, 0xf9, 0xfa, 0x08, 0xf4, 0xed, 0xfe, 0x03, 0x16, 0xfe, 0xf6, 0xfa,
  0x06, 0xec, 0x20, 0x01, 0x08, 0xfe, 0xf4, 0xfc, 0x1c, 0x04, 0x01, 0x0d,
  0x03, 0x06, 0x26, 0x0d, 0x06, 0x25, 0x18, 0xf3, 0x0b, 0x00, 0xef, 0x1c,
  0x04, 0x13, 0xe3, 0xe1, 0x00, 0xf9, 0x30, 0xef, 0xfe, 0x06, 0x08, 0xfe,
  0xfb, 0x1a, 0x16, 0x13, 0x03, 0x05, 0x02, 0xfb, 0x07, 0x03, 0x06, 0x0b,
  0xf3, 0x07, 0x02, 0xfd, 0x10, 0x02, 0x03, 0x04, 0xfd, 0x0d, 0xf1, 0x06,
  0xff, 0x13, 0xce, 0x0c, 0x04, 0xfb, 0x04, 0x08, 0xf1, 0x05, 0x07, 0x00,
  0xfd, 0x06, 0xf3, 0x11, 0xef, 0xf7, 0xff, 0xf9, 0x04, 0xf6, 0x07, 0xfb,
  0xe3, 0x05, 0xec, 0xf5, 0x0c, 0xe8, 0xf9, 0xf6, 0x09, 0x16, 0xf8, 0xfc,
  0x05, 0xfe, 0xf8, 0x12, 0x10, 0x08, 0x02, 0xff, 0xfd, 0x0a, 0x14, 0x08,
  0xe2, 0xf5, 0x03, 0xfe, 0x01, 0x08, 0xf9, 0xfb, 0xff, 0xe7, 0xef, 0xfe,
  0x0a, 0x03, 0xfb, 0xe2, 0xab, 0xde, 0x05, 0x00, 0xec, 0x09, 0xf0, 0x02,
  0xfb, 0x04, 0x08, 0xfe, 0xec, 0xf8, 0xf8, 0x05, 0x02, 0xff, 0xf0, 0xfe,
  0x07, 0x0f, 0x04, 0xf4, 0xf2, 0x00, 0xf9, 0x02, 0xf0, 0x0a, 0xec, 0x01,
  0xf9, 0xfa, 0x02, 0x07, 0x05, 0x04, 0xf5, 0x01, 0x05, 0x15, 0x05, 0x08,
  0xf7, 0xfe, 0xfa, 0xff, 0xff, 0x08, 0xf9, 0xff, 0x00, 0xfc, 0x13, 0x01,
  0x06, 0x07, 0xf3, 0x01, 0x23, 0x05, 0xfb, 0xed, 0x04, 0xb6, 0xee, 0x06,
  0x04, 0xfd, 0x05, 0x03, 0xf4, 0x01, 0xff, 0x05, 0x01, 0x06, 0xf7, 0x0b,
  0xfd, 0x02, 0x0f, 0xfc, 0x03, 0x03, 0xfd, 0xf4, 0x03, 0x01, 0x06, 0xfd,
  0xfe, 0x0f, 0xf7, 0xf1, 0x02, 0x05, 0x09, 0xfa, 0x00, 0xf3, 0x04, 0x05,
  0x0b, 0xf4, 0xf6, 0x05, 0x0d, 0xf8, 0xf0, 0x00, 0xf4, 0xfd, 0x03, 0x06,
  0x07, 0xf7, 0x03, 0xfe, 0x0b, 0x05, 0x01, 0xfd, 0x03, 0xfd, 0x05, 0x03,
  0xff, 0xf9, 0xfd, 0xe8, 0xcf, 0xfb, 0x01, 0xfc, 0x0b, 0x07, 0xf4, 0x04,
  0xfd, 0xff, 0x00, 0x02, 0x0a, 0x02, 0xf6, 0xf8, 0x03, 0x0a, 0xfe, 0x09,
  0x09, 0xe1, 0x02, 0x05, 0xfd, 0x05, 0xfc, 0x04, 0x01, 0xe4, 0xf8, 0xfc,
  0x0a, 0xf1, 0xf7, 0xed, 0x0e, 0xf1, 0x0c, 0xf0, 0xfb, 0x06, 0x08, 0xf8,
  0xfb, 0xf9, 0x07, 0xea, 0xf9, 0xfc, 0xfb, 0xfe, 0xfa, 0xf9, 0xfe, 0xfc,
  0x03, 0x00, 0x02, 0x0b, 0xf9, 0xff, 0xfe, 0x01, 0x02, 0xf7, 0xbf, 0xf6,
  0xfa, 0x02, 0x06, 0x06, 0xfa, 0x08, 0xfe, 0xfc, 0xfb, 0x08, 0xfa, 0x06,
  0xfe, 0x03, 0x05, 0x08, 0xfa, 0x08, 0x07, 0xf9, 0xfb, 0x02, 0x13, 0x00,
  0xfd, 0x09, 0x02, 0xfa, 0xfc, 0xee, 0xfe, 0xfd, 0x06, 0xf7, 0x04, 0xfe,
  0x09, 0xf6, 0xf1, 0x15, 0x07, 0xfc, 0x01, 0xfe, 0x01, 0xfd, 0xf3, 0x02,
  0x00, 0xfe, 0x00, 0xf5, 0xfd, 0x01, 0xfc, 0x01, 0xfd, 0x0a, 0xfb, 0xfe,
  0xee, 0x08, 0xfc, 0xe1, 0xc3, 0xf8, 0xfa, 0xfd, 0xf7, 0x04, 0xf9, 0x02,
  0x00, 0xf6, 0xfb, 0xfe, 0xff, 0x02, 0x00, 0xfd, 0xfa, 0xfd, 0x05, 0xff,
  0x03, 0xee, 0x0d, 0xff, 0x08, 0xf9, 0x0f, 0x02, 0xff, 0xf6, 0x01, 0xf9,
  0x01, 0xfe, 0x09, 0xf6, 0x06, 0xf8, 0x05, 0xff, 0xf9, 0x0c, 0x0c, 0xf8,
  0xfa, 0x00, 0xfe, 0x03, 0xec, 0xfa, 0x0f, 0xf2, 0x08, 0xf6, 0x05, 0xfa,
  0xf9, 0xf9, 0xff, 0x02, 0x02, 0xfe, 0xf1, 0x0b, 0xff, 0xee, 0xe2, 0xfa,
  0xfb, 0xf4, 0xf9, 0xfe, 0xfc, 0x00, 0x00, 0xfb, 0x07, 0x00, 0x01, 0xff,
  0xfd, 0xf3, 0x01, 0xff, 0xff, 0x00, 0xf6, 0xff, 0x07, 0xf7, 0xff, 0xf8,
  0xff, 0xfc, 0xfd, 0xfd, 0xfc, 0x0b, 0xf8, 0xf4, 0x0a, 0x01, 0x00, 0x04,
  0xf8, 0xf7, 0xfd, 0x13, 0x07, 0x03, 0xf1, 0xf5, 0x07, 0x01, 0xf8, 0xfd,
  0x02, 0xf6, 0x03, 0x02, 0x05, 0xfe, 0xff, 0x0a, 0x04, 0xf9, 0x00, 0xff,
  0xfe, 0xff, 0x03, 0xe3, 0xeb, 0xf9, 0x02, 0xf6, 0xfd, 0x03, 0xfb, 0x01,
  0xf9, 0xf3, 0xf8, 0xfd, 0x01, 0x02, 0x00, 0xef, 0x00, 0x07, 0x02, 0x00,
  0xfa, 0xfd, 0x03, 0xfa, 0x03, 0x05, 0x02, 0xf0, 0xfe, 0x02, 0xfd, 0x05,
  0xfa, 0x04, 0x0e, 0x0b, 0x0b, 0x0c, 0xff, 0xff, 0x02, 0x10, 0x04, 0x03,
  0x01, 0x08, 0x0b, 0xfe, 0xf4, 0x00, 0x01, 0x05, 0xf4, 0xfa, 0x01, 0xfb,
  0x05, 0xfd, 0x02, 0x07, 0xfd, 0xfc, 0xfc, 0xf4, 0xfd, 0xf0, 0xf7, 0xf9,
  0x05, 0xee, 0xf2, 0x04, 0xf8, 0x04, 0xfd, 0xf9, 0x00, 0xfe, 0xfd, 0x03,
  0x0a, 0xf8, 0xfb, 0x02, 0xfd, 0xfd, 0xfc, 0xfe, 0xf4, 0xef, 0x03, 0xfb,
  0xf6, 0xf8, 0x03, 0x02, 0x0a, 0x09, 0xf9, 0x13, 0x15, 0x12, 0x0b, 0x12,
  0xfd, 0xff, 0x0d, 0x16, 0x00, 0x01, 0x05, 0xf2, 0x05, 0xfd, 0xfb, 0x01,
  0x02, 0xff, 0xfd, 0xeb, 0x00, 0xfc, 0x03, 0x02, 0x03, 0xf8, 0x02, 0xfc,
  0x05, 0x0a, 0xff, 0xf7, 0xfa, 0xfa, 0x02, 0xfe, 0x00, 0x06, 0x00, 0x07,
  0x05, 0xfa, 0xff, 0xfb, 0xf4, 0xfb, 0x01, 0xf1, 0xfa, 0xec, 0x07, 0x01,
  0xfe, 0xf5, 0xf9, 0xf5, 0x04, 0x01, 0xfb, 0x0a, 0x03, 0x08, 0x06, 0x04,
  0xfa, 0x0e, 0x0d, 0x0b, 0x08, 0x04, 0xf2, 0xf6, 0x0c, 0x16, 0x03, 0x09,
  0x0e, 0xf7, 0xff, 0xfa, 0xfe, 0x07, 0x07, 0xf3, 0xf3, 0xf9, 0x00, 0xfd,
  0x0a, 0x08, 0x05, 0xf2, 0xfa, 0xf9, 0xf7, 0x0d, 0x02, 0xe0, 0xfb, 0xf5,
  0x01, 0xed, 0x16, 0x06, 0xfb, 0x07, 0x03, 0xe4, 0xf4, 0xff, 0xf5, 0x09,
  0x0b, 0xe3, 0xf7, 0xe3, 0xf4, 0x0e, 0x05, 0x02, 0x03, 0xd7, 0xf3, 0xfe,
  0xf2, 0x00, 0xfa, 0xfa, 0x04, 0xf0, 0xfa, 0x01, 0x10, 0xf7, 0x11, 0xea,
  0xf4, 0xfa, 0x11, 0xf8, 0x0e, 0xf8, 0xf4, 0xee, 0xf7, 0x0a, 0x09, 0x07,
  0xfc, 0xe3, 0xfe, 0x0f, 0xfa, 0x07, 0x05, 0xf5, 0xf6, 0xe5, 0xf9, 0xff,
  0x10, 0x11, 0x06, 0xe2, 0xf9, 0xff, 0x09, 0xf2, 0xef, 0x02, 0x1e, 0x01,
  0xfa, 0xfb, 0x18, 0x08, 0xfd, 0xf8, 0xfb, 0x05, 0xeb, 0x03, 0xf8, 0x02,
  0xf2, 0xf1, 0x0b, 0xfd, 0xfb, 0x02, 0xf6, 0xf7, 0x0c, 0xf5, 0xf1, 0x07,
  0xf1, 0xfd, 0x0e, 0xf9, 0x09, 0xf8, 0xf6, 0x03, 0xfe, 0x02, 0xfa, 0xf7,
  0xf8, 0x06, 0x00, 0xec, 0x06, 0xfb, 0xf2, 0xf9, 0x06, 0xe3, 0x02, 0x06,
  0xe6, 0x05, 0xfa, 0xfb, 0xfd, 0x00, 0xf8, 0xf0, 0x02, 0xfe, 0xd6, 0xfc,
  0x0a, 0xfc, 0xd9, 0x08, 0x0e, 0x0a, 0x05, 0xff, 0x0f, 0x00, 0x00, 0x0d,
  0xfe, 0x05, 0xe4, 0x01, 0x07, 0x09, 0xeb, 0xff, 0x02, 0x00, 0xf8, 0x05,
  0x02, 0xf9, 0x0e, 0xe5, 0xf6, 0x09, 0x02, 0xf8, 0xff, 0x04, 0xf7, 0x0b,
  0x03, 0xf5, 0xf0, 0x10, 0x01, 0x03, 0x0a, 0xe9, 0xfc, 0x06, 0xf6, 0xf8,
  0xfa, 0xfe, 0x00, 0xef, 0x0b, 0x05, 0xf8, 0x05, 0x04, 0x09, 0x16, 0xf8,
  0x02, 0xf4, 0x08, 0xf1, 0xf0, 0xda, 0x05, 0x02, 0xda, 0x0a, 0x04, 0x11,
  0x08, 0xfe, 0x18, 0x07, 0x03, 0x0a, 0x03, 0xff, 0xe4, 0x0c, 0x02, 0x12,
  0x08, 0x00, 0xf8, 0x0b, 0x07, 0x10, 0xf7, 0xee, 0x0b, 0xee, 0x06, 0xf7,
  0x02, 0xfc, 0x0d, 0xf7, 0xf9, 0xfc, 0x07, 0xfb, 0x01, 0x0b, 0x0b, 0x09,
  0x0d, 0xf3, 0xfc, 0x00, 0x0b, 0xfc, 0x05, 0xf6, 0xf9, 0xda, 0x02, 0xfc,
  0xfd, 0x05, 0x05, 0x11, 0x02, 0xe8, 0xf2, 0xfc, 0x05, 0xf7, 0xfd, 0xe5,
  0x02, 0x0a, 0xd0, 0x06, 0xf0, 0x02, 0x09, 0xf5, 0x1c, 0x02, 0x02, 0x05,
  0x02, 0x0c, 0xe9, 0xfb, 0x00, 0xfd, 0x04, 0x09, 0xfd, 0xfd, 0x06, 0xfd,
  0xf8, 0x11, 0x05, 0xf9, 0x02, 0x06, 0xfb, 0xf6, 0x10, 0x00, 0x02, 0x06,
  0x00, 0xfa, 0xfb, 0x0e, 0xfe, 0xff, 0xfe, 0xfa, 0xfe, 0x04, 0x09, 0xf5,
  0x04, 0xf4, 0x02, 0xee, 0x04, 0x03, 0xf4, 0xf2, 0x02, 0x0b, 0xfc, 0xf3,
  0xea, 0xee, 0xff, 0x04, 0xe9, 0xf9, 0x04, 0x0e, 0xeb, 0x04, 0xf6, 0xfb,
  0x01, 0xf5, 0x0b, 0x01, 0x05, 0x00, 0x0a, 0x0d, 0xf0, 0xfa, 0x00, 0xf0,
  0x01, 0x0c, 0xfb, 0x07, 0x02, 0xef, 0xfb, 0x07, 0xfc, 0x06, 0xfb, 0xfe,
  0xff, 0xec, 0x05, 0xf8, 0xfd, 0x03, 0xfc, 0xec, 0x01, 0xfa, 0x06, 0x06,
  0x00, 0xf5, 0x04, 0xf3, 0x03, 0xfa, 0x03, 0xf6, 0x00, 0xfd, 0x09, 0x01,
  0xef, 0xf8, 0x09, 0x01, 0x05, 0xfd, 0xfc, 0xe7, 0x01, 0xf8, 0xea, 0xfd,
  0xfc, 0xf7, 0x0f, 0xfb, 0xff, 0xfa, 0x03, 0xf0, 0x00, 0x01, 0x04, 0xf9,
  0xfc, 0x02, 0xed, 0xf6, 0x03, 0xfd, 0x07, 0x10, 0xfd, 0x06, 0xff, 0xf0,
  0xf2, 0x05, 0xf7, 0x07, 0x08, 0x02, 0xfc, 0xed, 0x0b, 0x0d, 0xf4, 0xfd,
  0xfb, 0xf2, 0x09, 0x01, 0x0d, 0x05, 0x00, 0xfd, 0x0c, 0x0e, 0x03, 0xfe,
  0xf5, 0x0c, 0x00, 0xf8, 0xf5, 0xfe, 0xf7, 0x04, 0x03, 0xfe, 0xfa, 0xfa,
  0x0c, 0xfa, 0xfc, 0xf4, 0xec, 0x01, 0x00, 0xf8, 0x06, 0x00, 0xfd, 0x07,
  0xfb, 0x01, 0xf2, 0xf9, 0x01, 0x03, 0x01, 0x03, 0xfe, 0xfa, 0x03, 0xf9,
  0x07, 0x01, 0xee, 0x01, 0x02, 0xf8, 0xfe, 0xfd, 0xf7, 0x01, 0x04, 0xfc,
  0x09, 0xf4, 0x0d, 0xfe, 0xfa, 0x04, 0x00, 0x03, 0xf8, 0xf3, 0x03, 0xfe,
  0x00, 0xf9, 0x05, 0x06, 0x0a, 0xfc, 0xfe, 0xfd, 0xff, 0xea, 0xff, 0x04,
  0xf0, 0x09, 0x01, 0x07, 0x05, 0xff, 0xf0, 0x04, 0xff, 0xf8, 0x08, 0xfe,
  0x01, 0x0e, 0x0c, 0xfd, 0x06, 0xeb, 0xf8, 0x0c, 0x0d, 0xfc, 0xf7, 0x0b,
  0x04, 0x0c, 0x05, 0xfa, 0xfa, 0x06, 0x05, 0xf8, 0x05, 0xfc, 0x00, 0x07,
  0x0e, 0x0b, 0xf3, 0x01, 0xff, 0xfd, 0x03, 0xfc, 0xfb, 0x02, 0xf8, 0x01,
  0xfe, 0x00, 0x02, 0xf9, 0xfd, 0x05, 0x06, 0xf4, 0xff, 0x06, 0xfb, 0x02,
  0x06, 0xf8, 0xf9, 0xfd, 0x08, 0xfa, 0xf8, 0xfd, 0xff, 0x08, 0xf3, 0x02,
  0xf7, 0x0f, 0x02, 0xfe, 0x03, 0xff, 0x08, 0x0e, 0xfb, 0xf5, 0x13, 0xf6,
  0x03, 0xfb, 0x08, 0xf4, 0x00, 0xfa, 0x0c, 0x06, 0xf4, 0x00, 0x0b, 0xff,
  0xfd, 0x05, 0xf2, 0x01, 0x06, 0x05, 0x0b, 0xf9, 0xf5, 0xfd, 0xf8, 0x10,
  0x05, 0x0c, 0xfb, 0x01, 0xf7, 0x09, 0xfb, 0x02, 0xf6, 0xff, 0x01, 0x02,
  0x01, 0xf6, 0x00, 0xed, 0xf0, 0x08, 0x04, 0xf8, 0x00, 0xfc, 0xf7, 0x02,
  0xfe, 0xfd, 0xfd, 0xfd, 0xee, 0x04, 0xff, 0x13, 0x03, 0x04, 0x03, 0x04,
  0x11, 0xfd, 0xfe, 0xfc, 0x08, 0xe0, 0x09, 0x08, 0x02, 0xfb, 0x0a, 0x04,
  0xfe, 0x09, 0xef, 0x04, 0x06, 0x01, 0x05, 0x00, 0x08, 0x0d, 0x00, 0xff,
  0xfe, 0xfd, 0xfe, 0xfb, 0xf1, 0xf7, 0x00, 0xf4, 0x06, 0x07, 0xf5, 0x0a,
  0xf2, 0x01, 0xfd, 0x09, 0xfc, 0x02, 0xfe, 0xdc, 0xfb, 0xe4, 0xf5, 0x02,
  0xfb, 0xf0, 0x04, 0xfb, 0xf7, 0xf9, 0xfc, 0xfe, 0xfd, 0xf3, 0x07, 0xf4,
  0xee, 0x02, 0x06, 0xff, 0x00, 0xf5, 0x03, 0x0d, 0xf7, 0xfb, 0x00, 0xe2,
  0x00, 0x22, 0xf0, 0xfa, 0xff, 0xf4, 0x00, 0x0c, 0x01, 0x0c, 0x06, 0x1a,
  0x04, 0xf7, 0xfb, 0x09, 0x02, 0x04, 0xea, 0xf6, 0xf8, 0xe5, 0xf1, 0xfc,
  0xf8, 0xfc, 0x0c, 0xe4, 0xed, 0x10, 0xec, 0x0d, 0x01, 0xff, 0xfd, 0x03,
  0xfb, 0x02, 0x00, 0xf5, 0xf5, 0x05, 0xe8, 0x07, 0x04, 0xdc, 0xf2, 0x06,
  0xef, 0x02, 0x08, 0xee, 0xff, 0xf6, 0xf1, 0xfd, 0x06, 0xfc, 0xf6, 0xed,
  0x02, 0xf9, 0xdf, 0xf9, 0xf5, 0x07, 0x07, 0x04, 0xed, 0xff, 0x20, 0xfb,
  0x08, 0x07, 0xf7, 0x0b, 0xd9, 0x03, 0x03, 0x06, 0xf5, 0x06, 0xeb, 0xe8,
  0x05, 0xf9, 0x05, 0x03, 0xf6, 0x04, 0x13, 0xfa, 0x02, 0xf6, 0x08, 0x1e,
  0xe8, 0xf0, 0xfa, 0xd6, 0xfd, 0x0d, 0x11, 0xf5, 0x10, 0xcd, 0xef, 0x06,
  0xf0, 0x03, 0x09, 0xf8, 0xe3, 0xf5, 0xf5, 0x06, 0xfa, 0xcd, 0x87, 0xf0,
  0x05, 0xfe, 0xfe, 0xe6, 0xfa, 0xb5, 0x00, 0x03, 0xb6, 0x02, 0xf8, 0x06,
  0x06, 0x04, 0x03, 0x02, 0x13, 0xee, 0x01, 0x08, 0xfa, 0x06, 0x01, 0xed,
  0xfc, 0xfc, 0xf9, 0x05, 0x16, 0xea, 0x15, 0xf7, 0x0e, 0xff, 0x09, 0xf5,
  0x18, 0xf3, 0xf3, 0xfa, 0x08, 0xfa, 0xf8, 0xdf, 0x0a, 0xe4, 0x01, 0xf2,
  0x13, 0x0f, 0x13, 0xdc, 0x05, 0xfd, 0x00, 0x02, 0x03, 0xf6, 0x01, 0xfd,
  0xf8, 0xfb, 0x05, 0xdb, 0xd8, 0xf0, 0xfe, 0x05, 0xfa, 0xf3, 0x1d, 0xe1,
  0xfe, 0x08, 0xd5, 0xfe, 0xfd, 0xff, 0x01, 0x00, 0xfd, 0xfd, 0xf6, 0xee,
  0xf9, 0x0d, 0x02, 0x04, 0xfc, 0xf5, 0xff, 0xf9, 0x00, 0x06, 0xfd, 0xfa,
  0xfc, 0x04, 0x0f, 0x06, 0x0e, 0x00, 0xf8, 0xec, 0xfe, 0xfc, 0x0b, 0xfe,
  0xfc, 0x06, 0x0b, 0xed, 0xf4, 0x0c, 0x00, 0x0d, 0x06, 0xf2, 0x05, 0x07,
  0x05, 0x1c, 0x09, 0x0a, 0x02, 0x06, 0x09, 0xf9, 0x02, 0xf3, 0xee, 0x03,
  0xf6, 0x04, 0xf9, 0xf3, 0x0c, 0x01, 0xfb, 0xff, 0xdd, 0x01, 0x07, 0xf2,
  0xf9, 0x06, 0x0b, 0x04, 0xf6, 0x02, 0xf9, 0x02, 0x05, 0x04, 0xf6, 0xf5,
  0xfe, 0x0c, 0x04, 0xfd, 0xf4, 0x02, 0xf5, 0xed, 0x02, 0x0f, 0x0c, 0x04,
  0xf7, 0xef, 0x06, 0x07, 0xf1, 0x04, 0xf1, 0x0a, 0x03, 0xf6, 0x01, 0x09,
  0xf3, 0x08, 0xef, 0x0d, 0xfa, 0x00, 0xfe, 0x07, 0x01, 0x0f, 0xfa, 0x04,
  0xfd, 0xfb, 0xfd, 0xfb, 0x13, 0x00, 0xfe, 0xf5, 0xfe, 0xe4, 0xfb, 0x08,
  0x01, 0xff, 0xe4, 0x02, 0x02, 0x02, 0x02, 0x04, 0x05, 0x00, 0xfa, 0x03,
  0x05, 0xf1, 0x07, 0x07, 0x0d, 0x03, 0x05, 0xfd, 0x08, 0xeb, 0xfd, 0x01,
  0x01, 0xf6, 0x06, 0x01, 0x0f, 0x04, 0xf9, 0xf5, 0x07, 0xfd, 0x01, 0xfb,
  0xf1, 0xf7, 0x11, 0xe6, 0x01, 0x06, 0xfc, 0xf8, 0xf0, 0x07, 0xfa, 0xfe,
  0xfc, 0x07, 0x04, 0x0d, 0xfc, 0x02, 0xfc, 0xed, 0xfe, 0xf5, 0xfe, 0xff,
  0xfc, 0xf1, 0x05, 0xda, 0xd8, 0x07, 0x02, 0x05, 0xff, 0x06, 0xf5, 0x01,
  0x01, 0xf8, 0x04, 0x06, 0xfd, 0x05, 0x05, 0xfb, 0x01, 0x0b, 0xf7, 0xfe,
  0xf8, 0xf4, 0x11, 0xcb, 0x04, 0x06, 0xff, 0x08, 0x00, 0x05, 0xfb, 0x03,
  0x0c, 0xf4, 0xf7, 0xec, 0xfe, 0xfc, 0xfa, 0xf3, 0xff, 0xea, 0xe7, 0x01,
  0xff, 0xee, 0xe3, 0x02, 0x06, 0x04, 0xfb, 0xf6, 0xfc, 0x06, 0x03, 0x04,
  0xff, 0xf2, 0xfe, 0xfa, 0xf8, 0x04, 0x01, 0xfe, 0x01, 0xd1, 0xd8, 0x05,
  0x03, 0xf2, 0x02, 0x03, 0xf7, 0xfd, 0xff, 0xf5, 0x06, 0x05, 0x06, 0x03,
  0xfa, 0x05, 0xf5, 0x01, 0xfd, 0x03, 0x00, 0xf6, 0x13, 0xec, 0xfd, 0x05,
  0xfc, 0x11, 0x02, 0x05, 0xfc, 0x06, 0xf9, 0xfb, 0xf4, 0xef, 0xf4, 0xfc,
  0xf9, 0x00, 0xf6, 0xf4, 0xe8, 0x01, 0x02, 0xfa, 0xfc, 0xf4, 0x00, 0x02,
  0x04, 0x13, 0xfc, 0xfb, 0x02, 0x02, 0x03, 0xf5, 0x02, 0x00, 0x00, 0x05,
  0x08, 0xfd, 0x03, 0xd9, 0xea, 0xfc, 0xfd, 0xed, 0xe7, 0x09, 0xf8, 0x01,
  0xfc, 0xfd, 0xfe, 0x05, 0x05, 0x05, 0xf9, 0xfc, 0x00, 0xf6, 0xf8, 0x04,
  0xf9, 0x02, 0x02, 0x0c, 0x04, 0xf8, 0xff, 0xf5, 0xff, 0xfb, 0xfc, 0x04,
  0xfd, 0xf4, 0xf5, 0xed, 0xf2, 0xfe, 0xf5, 0xeb, 0x02, 0xf3, 0xf2, 0xfe,
  0x04, 0xef, 0xf5, 0x03, 0x03, 0xf9, 0xfe, 0x09, 0x04, 0x02, 0xf3, 0x08,
  0xf8, 0xe0, 0xfc, 0xf3, 0x05, 0xfc, 0xfd, 0xfd, 0x01, 0xe9, 0xec, 0xff,
  0x01, 0xf1, 0xf3, 0x06, 0x00, 0x04, 0xf9, 0xf4, 0xf1, 0xfd, 0xfd, 0x01,
  0xf6, 0xef, 0xff, 0xf8, 0xf8, 0xf0, 0x01, 0x06, 0x0d, 0x07, 0x0b, 0xf9,
  0x02, 0x05, 0x06, 0xf9, 0x05, 0xfa, 0x04, 0xff, 0xfa, 0xf5, 0xff, 0xf4,
  0xf7, 0x06, 0xfe, 0xea, 0xfd, 0xff, 0xfd, 0x00, 0xfc, 0x0b, 0x09, 0xfa,
  0x04, 0x13, 0x08, 0x04, 0xfb, 0x05, 0xf9, 0xf1, 0xff, 0xf2, 0xf8, 0x01,
  0xff, 0xfb, 0x00, 0xfe, 0xe3, 0x04, 0xfe, 0xf4, 0x03, 0x06, 0xf3, 0x08,
  0xfb, 0xf1, 0xf7, 0xf1, 0x07, 0x04, 0xfc, 0xf5, 0x08, 0x07, 0x01, 0xfc,
  0xf6, 0xff, 0x07, 0x09, 0x07, 0x03, 0x02, 0x01, 0x13, 0xfe, 0xfc, 0x04,
  0xf7, 0xf9, 0x01, 0xf7, 0x03, 0x01, 0xfc, 0xfd, 0x07, 0xfb, 0xff, 0x03,
  0xfd, 0xfd, 0x05, 0x03, 0x0b, 0x03, 0x03, 0x24, 0x05, 0x03, 0xf8, 0x08,
  0xf0, 0x0f, 0xff, 0x00, 0xfb, 0x06, 0xf9, 0xff, 0x00, 0x0d, 0xf9, 0x00,
  0xff, 0xf5, 0x01, 0xf6, 0xf5, 0x09, 0xfb, 0xf6, 0x07, 0xeb, 0x09, 0x03,
  0x0b, 0xe1, 0x10, 0x17, 0x02, 0x00, 0xfd, 0x07, 0x01, 0x05, 0x0b, 0x05,
  0x0b, 0x08, 0x0c, 0x06, 0x02, 0x00, 0x0a, 0xea, 0xe9, 0x0f, 0xfd, 0xf8,
  0x0e, 0xf1, 0xef, 0x00, 0x08, 0xf5, 0xf4, 0xfa, 0xfd, 0xe5, 0x13, 0xf9,
  0x08, 0xff, 0x10, 0x17, 0xfc, 0xea, 0xe8, 0x09, 0x04, 0x18, 0xff, 0x0a,
  0xf2, 0x0d, 0xfe, 0x11, 0x0e, 0x02, 0xe5, 0xe6, 0xfd, 0xeb, 0xee, 0xeb,
  0xdb, 0xe7, 0xec, 0xf0, 0xe8, 0xd1, 0xe7, 0xe9, 0xda, 0xf5, 0xf1, 0xd9,
  0xe4, 0xf0, 0xe2, 0xf7, 0xf9, 0xea, 0xe9, 0xfc, 0xe6, 0xf4, 0xf4, 0x05,
  0xe6, 0x01, 0xf0, 0xf9, 0xd6, 0xf8, 0xf0, 0x05, 0xe9, 0x03, 0xca, 0x02,
  0x11, 0x0a, 0xee, 0x0d, 0xcf, 0x03, 0x0f, 0x0a, 0x01, 0x08, 0x07, 0x05,
  0x0a, 0x0f, 0x06, 0x07, 0x08, 0x08, 0x06, 0x10, 0x08, 0x07, 0xfa, 0x06,
  0xda, 0xf2, 0xfc, 0xe4, 0xde, 0xa6, 0xe5, 0xf0, 0xf6, 0xf4, 0xe6, 0xfc,
  0xf4, 0xf4, 0xfc, 0xfa, 0xe8, 0xe7, 0xf8, 0xfa, 0xfc, 0xff, 0xee, 0xeb,
  0xf3, 0x00, 0xef, 0x00, 0xfc, 0xf3, 0xe7, 0x01, 0xeb, 0xfc, 0x04, 0xfa,
  0x04, 0x00, 0xf7, 0xf6, 0xff, 0x01, 0xff, 0x02, 0xf3, 0xf3, 0x16, 0xfa,
  0x03, 0xff, 0xfb, 0x0b, 0x05, 0x05, 0x14, 0x06, 0x03, 0x1b, 0x15, 0xff,
  0x02, 0xfb, 0x01, 0x07, 0x09, 0x0d, 0xe7, 0xed, 0xe0, 0xf9, 0xd0, 0xd0,
  0xd9, 0x05, 0xee, 0xfd, 0xea, 0xfb, 0xfb, 0x00, 0xfb, 0x01, 0x08, 0xf6,
  0xfa, 0xfc, 0xeb, 0x01, 0x00, 0x03, 0xf4, 0x01, 0xf5, 0x05, 0xfc, 0xfe,
  0xf7, 0xfc, 0x07, 0xfc, 0xe4, 0xf1, 0xf8, 0x05, 0x0c, 0xea, 0xf4, 0xf6,
  0xfa, 0xf8, 0x01, 0xfd, 0x00, 0xfa, 0x03, 0xf9, 0xfe, 0x05, 0x01, 0xfa,
  0x13, 0x05, 0xf9, 0x0c, 0x1a, 0xf4, 0x08, 0x01, 0x03, 0x11, 0x2a, 0x04,
  0xdf, 0xfe, 0xe8, 0xfd, 0xe5, 0xfa, 0xfb, 0x01, 0xef, 0x01, 0xe1, 0xef,
  0xfd, 0x08, 0xf2, 0xfa, 0x09, 0xfe, 0xfb, 0xfc, 0x00, 0x04, 0xfd, 0x12,
  0x03, 0xfc, 0xfc, 0x03, 0x01, 0x06, 0xff, 0xff, 0x02, 0xff, 0xf9, 0xf5,
  0xef, 0xfa, 0x09, 0x05, 0x04, 0xfd, 0x02, 0x0d, 0x00, 0xff, 0x08, 0x04,
  0x0b, 0x05, 0xf8, 0xf0, 0x1b, 0xf9, 0x09, 0x03, 0x04, 0xf6, 0x19, 0xe9,
  0x0e, 0x04, 0x06, 0xf8, 0x29, 0xfa, 0xea, 0x06, 0xf7, 0xfb, 0x0d, 0x08,
  0x0d, 0x0f, 0xf7, 0xfa, 0xe9, 0xff, 0xff, 0x01, 0x04, 0x03, 0xf2, 0xfb,
  0x01, 0x08, 0xfd, 0x06, 0x0d, 0x00, 0xfa, 0xfd, 0x00, 0xf8, 0x15, 0x01,
  0xfe, 0xf8, 0xfe, 0x02, 0x05, 0xf7, 0xfa, 0xfe, 0xff, 0xf1, 0x0d, 0x01,
  0xf1, 0x06, 0xff, 0xe4, 0x10, 0x09, 0x01, 0x0e, 0x04, 0xee, 0x1f, 0x03,
  0x06, 0x07, 0xfe, 0xf7, 0x29, 0xfb, 0x20, 0xfe, 0x15, 0xf0, 0x0b, 0xfe,
  0xe8, 0x04, 0xe8, 0x0e, 0x03, 0x10, 0xf8, 0x11, 0xef, 0xf8, 0xe1, 0x09,
  0xf6, 0x0a, 0xf1, 0xf4, 0xef, 0x0a, 0x04, 0x08, 0x0b, 0xf8, 0x03, 0xf6,
  0x0d, 0x08, 0x0e, 0xfa, 0x03, 0xf8, 0x09, 0x03, 0xf8, 0x00, 0x0d, 0xf2,
  0x09, 0xfc, 0x04, 0xf5, 0x0e, 0xf1, 0xfe, 0x10, 0xfb, 0xfa, 0x19, 0xfb,
  0x01, 0x0a, 0xfc, 0xf9, 0x08, 0x03, 0x0a, 0x09, 0xfc, 0xf0, 0x01, 0x02,
  0x07, 0x02, 0x20, 0xea, 0xfc, 0x01, 0xf9, 0x02, 0xde, 0x01, 0xf9, 0x07,
  0xf4, 0x0f, 0xed, 0xf4, 0xfb, 0x13, 0xff, 0x04, 0x07, 0xe7, 0xfb, 0x06,
  0x00, 0x01, 0x06, 0xeb, 0xfe, 0xfc, 0x07, 0xfd, 0x01, 0x03, 0xfc, 0x05,
  0x02, 0x08, 0xfd, 0x03, 0x0a, 0x04, 0x00, 0x13, 0xf2, 0x09, 0x07, 0xf5,
  0x01, 0x11, 0xf5, 0x04, 0xf8, 0x06, 0x01, 0x08, 0x05, 0xf4, 0xfe, 0x01,
  0x09, 0x06, 0x0d, 0x01, 0xfa, 0xfd, 0xf9, 0x1e, 0x19, 0x0b, 0xfa, 0xfe,
  0x00, 0xfe, 0xc3, 0x02, 0xf9, 0x08, 0xf8, 0x07, 0x09, 0xf4, 0x00, 0x09,
  0xf9, 0x02, 0x06, 0xff, 0x0b, 0xfb, 0xf6, 0x09, 0xf8, 0x04, 0x01, 0x0c,
  0x0b, 0x09, 0x01, 0xfc, 0xf6, 0xf8, 0x04, 0x02, 0xfb, 0x00, 0x03, 0xf8,
  0x0a, 0x1a, 0xfa, 0xfe, 0x06, 0x01, 0x05, 0x14, 0xf4, 0x03, 0x07, 0xf4,
  0x01, 0x08, 0xfa, 0x03, 0x0b, 0xfc, 0xfc, 0x07, 0x01, 0x0a, 0x03, 0x02,
  0x0b, 0x0f, 0x02, 0xfc, 0xee, 0x0b, 0x00, 0x09, 0xc7, 0xf9, 0x11, 0xef,
  0xf5, 0x15, 0xf7, 0x03, 0x0e, 0xf0, 0xf4, 0x0c, 0x10, 0x03, 0x09, 0xfc,
  0xfa, 0x08, 0x00, 0x02, 0x03, 0x03, 0xfd, 0xfa, 0xe4, 0x02, 0x01, 0x09,
  0x05, 0x04, 0xff, 0x01, 0xff, 0x0b, 0x05, 0x05, 0xfb, 0xfa, 0xfb, 0x01,
  0x0e, 0xfd, 0xfc, 0xf1, 0xfc, 0x01, 0xfd, 0xf2, 0xf1, 0x0d, 0x02, 0xfa,
  0x02, 0xfe, 0xf9, 0x1b, 0xfe, 0xf9, 0x07, 0xfd, 0xfc, 0x19, 0x02, 0x05,
  0xfe, 0x18, 0xc2, 0xf9, 0x13, 0xf4, 0xee, 0x13, 0xd2, 0xfc, 0x09, 0xf7,
  0xef, 0x13, 0xf1, 0xfd, 0x09, 0xf7, 0xf3, 0x13, 0x00, 0xf0, 0xff, 0xfb,
  0xf7, 0x02, 0xfa, 0xf5, 0x00, 0xfe, 0x04, 0x0b, 0x0b, 0x07, 0xfe, 0x0c,
  0x05, 0x07, 0x00, 0xf7, 0xfc, 0xfa, 0x06, 0x0b, 0xe8, 0x05, 0x02, 0xe8,
  0xfa, 0xeb, 0xee, 0x05, 0x04, 0xec, 0xf2, 0x0b, 0xf5, 0x13, 0xfd, 0xf7,
  0xfe, 0x08, 0xf1, 0x0c, 0xfa, 0x12, 0xf7, 0x1c, 0xef, 0xfa, 0x03, 0xf9,
  0xe6, 0x15, 0xf2, 0x04, 0x0b, 0xf5, 0xed, 0x1b, 0xf5, 0x0a, 0x0d, 0xff,
  0xf3, 0x19, 0x07, 0xfa, 0x02, 0xeb, 0xf6, 0x11, 0x07, 0xe5, 0x02, 0x0e,
  0x06, 0x06, 0x0e, 0xea, 0x01, 0x0a, 0xf6, 0x06, 0x12, 0xf0, 0xf9, 0xf5,
  0x07, 0xf6, 0xfd, 0x0c, 0x00, 0xe4, 0x06, 0xf6, 0xe4, 0x0b, 0x07, 0xeb,
  0xf4, 0x14, 0xed, 0x13, 0x00, 0x01, 0x07, 0x05, 0xec, 0x03, 0xfe, 0x0e,
  0x08, 0x02, 0x04, 0x02, 0xfd, 0x08, 0xfd, 0xf9, 0x0f, 0x05, 0xe0, 0x01,
  0x00, 0xff, 0x14, 0xf1, 0xfe, 0x03, 0x05, 0xfc, 0x0b, 0xff, 0x04, 0xfb,
  0x21, 0xfe, 0x1d, 0x0b, 0x02, 0x0a, 0x03, 0x01, 0xfb, 0xf5, 0x05, 0xf2,
  0x10, 0x01, 0x10, 0xfb, 0xec, 0xf6, 0x0c, 0xfb, 0xf8, 0x00, 0xeb, 0xf5,
  0x1e, 0x06, 0xf6, 0xfc, 0x07, 0xf0, 0x11, 0x01, 0x05, 0xf0, 0x0c, 0xfa,
  0xf3, 0x01, 0x04, 0xeb, 0x16, 0xef, 0xfe, 0xfd, 0x02, 0x00, 0x07, 0x07,
  0xf8, 0xf7, 0xff, 0x02, 0x06, 0x0d, 0x07, 0xf7, 0x0b, 0x01, 0x08, 0x06,
  0xff, 0xe8, 0x0d, 0xeb, 0x03, 0x03, 0xfa, 0x03, 0x09, 0x08, 0x0c, 0xfa,
  0xfb, 0xfd, 0xfc, 0xf4, 0x00, 0x04, 0x04, 0x06, 0xff, 0xe9, 0x01, 0xff,
  0xfa, 0xff, 0xfd, 0xfd, 0x03, 0x05, 0xf9, 0xf9, 0xfd, 0x17, 0xec, 0x03,
  0x05, 0xfa, 0x0d, 0xf6, 0xfd, 0x03, 0xf5, 0x04, 0x00, 0xef, 0xf6, 0xfe,
  0xfa, 0x06, 0x03, 0xff, 0x0d, 0x07, 0xfa, 0xf9, 0xf7, 0xfe, 0x0d, 0x02,
  0xff, 0xf8, 0xfc, 0xfc, 0xfd, 0x09, 0xfe, 0xfe, 0x0e, 0xe8, 0x07, 0x05,
  0xff, 0xf7, 0x02, 0xfb, 0xfe, 0x04, 0xf5, 0xf9, 0xf7, 0x00, 0xf7, 0x05,
  0xfc, 0x03, 0x08, 0xe7, 0xff, 0xff, 0x00, 0xfd, 0x00, 0x05, 0xf5, 0xfb,
  0xf8, 0xfc, 0x00, 0xfe, 0xe7, 0xff, 0xfd, 0x06, 0x05, 0xf7, 0xef, 0x02,
  0x0a, 0x04, 0x02, 0x01, 0xfb, 0xf8, 0xfe, 0x06, 0x0c, 0xfb, 0x07, 0x01,
  0xfe, 0xff, 0xed, 0xff, 0x04, 0x00, 0x03, 0xf5, 0x01, 0x01, 0x01, 0x04,
  0xf4, 0xfd, 0x07, 0xf7, 0x00, 0xfd, 0x09, 0xf1, 0xfd, 0xfb, 0x04, 0xf8,
  0xff, 0x03, 0xfd, 0xff, 0xf0, 0xfa, 0xfc, 0xf4, 0x01, 0xf4, 0xf5, 0x02,
  0x06, 0xf7, 0xfa, 0x11, 0xf7, 0xfd, 0x05, 0xf3, 0x01, 0x09, 0x00, 0x02,
  0xf8, 0xfb, 0x03, 0xee, 0xfd, 0xfe, 0xf6, 0x02, 0x06, 0xf8, 0x06, 0xf9,
  0x03, 0x09, 0x01, 0x02, 0x06, 0xff, 0x02, 0xfa, 0x02, 0xf8, 0x07, 0x05,
  0xf9, 0xe8, 0x03, 0xff, 0xfa, 0x05, 0xf8, 0xea, 0x04, 0xfb, 0xfb, 0x03,
  0xfe, 0xe8, 0x01, 0x06, 0x08, 0x01, 0x00, 0xfa, 0xfe, 0x03, 0xf2, 0x05,
  0xff, 0x01, 0xfe, 0xf6, 0xf8, 0xfa, 0xfe, 0x09, 0x0a, 0x04, 0xfd, 0x01,
  0x02, 0xf2, 0x04, 0x0d, 0xfe, 0x00, 0x00, 0xfa, 0xfd, 0xea, 0xf8, 0x00,
  0x01, 0xff, 0xfa, 0xfb, 0x0b, 0xfa, 0x02, 0x0c, 0xe5, 0xfe, 0x0d, 0x06,
  0xfc, 0x05, 0x05, 0xfa, 0x07, 0x00, 0x04, 0xf6, 0x09, 0x06, 0x00, 0x03,
  0xf7, 0xf0, 0xfe, 0xf6, 0xfa, 0xff, 0xfc, 0x00, 0x05, 0xf8, 0x03, 0x02,
  0xf7, 0xfe, 0xfe, 0x0f, 0xf6, 0x03, 0xfa, 0x03, 0x0b, 0xf8, 0xfd, 0x03,
  0x04, 0xf8, 0x04, 0x00, 0xfc, 0x05, 0x04, 0xec, 0x06, 0xfc, 0xff, 0x01,
  0xff, 0xe8, 0xfb, 0xf4, 0xfc, 0xfe, 0x03, 0xf8, 0xfd, 0xfe, 0x05, 0xfa,
  0xf9, 0x12, 0xee, 0x05, 0x06, 0x05, 0xff, 0x06, 0xeb, 0x02, 0x03, 0x01,
  0x03, 0xff, 0x04, 0x08, 0xff, 0xff, 0x02, 0x01, 0xfc, 0x00, 0x03, 0x04,
  0xfc, 0xf7, 0xfd, 0xfc, 0xf9, 0x04, 0xfe, 0xfc, 0xfa, 0x05, 0x01, 0x02,
  0xfc, 0xf8, 0x08, 0xfe, 0xfc, 0x01, 0x05, 0x06, 0x01, 0x0b, 0xfd, 0x01,
  0xfe, 0xf9, 0xfd, 0x0b, 0xf9, 0xff, 0xf8, 0xe6, 0xfa, 0xf2, 0xfa, 0xfd,
  0xf8, 0xfa, 0xff, 0x04, 0x03, 0x00, 0x00, 0x0f, 0xfd, 0xfe, 0x04, 0x01,
  0x06, 0x00, 0xfc, 0x03, 0x01, 0x02, 0x01, 0x05, 0xf5, 0x07, 0x02, 0x01,
  0x01, 0xfd, 0xfb, 0x03, 0xfa, 0x00, 0xfc, 0x03, 0x05, 0x02, 0xf9, 0xff,
  0x04, 0xf6, 0x04, 0x0b, 0xf6, 0x00, 0xff, 0x06, 0x02, 0x04, 0xea, 0xfe,
  0x03, 0xf4, 0x02, 0x05, 0x00, 0x03, 0x01, 0x04, 0x03, 0x05, 0x08, 0xfb,
  0xf5, 0x0c, 0xf8, 0xf8, 0xfb, 0xfe, 0xe8, 0xff, 0xfe, 0x0b, 0x0d, 0xfb,
  0xff, 0x05, 0xf5, 0x04, 0x02, 0xfd, 0x01, 0x07, 0x08, 0x04, 0x06, 0x01,
  0xfc, 0xfb, 0x01, 0x02, 0x05, 0x09, 0x07, 0x01, 0xf8, 0xf4, 0x00, 0x06,
  0x02, 0x00, 0xf6, 0x02, 0x01, 0xf9, 0x00, 0xf4, 0xfa, 0xf5, 0x02, 0xfe,
  0xfa, 0x03, 0x02, 0xf1, 0xff, 0xff, 0xff, 0x0c, 0xf9, 0xfc, 0x05, 0xfe,
  0xfe, 0x00, 0x03, 0x11, 0xfc, 0xfb, 0xfb, 0xff, 0x02, 0x07, 0x09, 0x07,
  0xf6, 0xf9, 0xfb, 0xf2, 0x03, 0xf6, 0xf9, 0x02, 0xfa, 0x06, 0x06, 0x01,
  0xfb, 0x03, 0xf9, 0x0a, 0x04, 0x0d, 0x02, 0x09, 0x00, 0x03, 0xfa, 0x12,
  0x08, 0x08, 0xfa, 0xf3, 0x02, 0xfe, 0x05, 0x01, 0xea, 0xff, 0x04, 0xf7,
  0x05, 0x02, 0xed, 0xfe, 0xf6, 0xfb, 0x01, 0x0e, 0xf7, 0xe8, 0xfc, 0xfe,
  0xf3, 0x12, 0xfd, 0x04, 0x03, 0x02, 0xf5, 0x03, 0x00, 0x07, 0x03, 0x02,
  0xfb, 0xe4, 0x05, 0xf1, 0x03, 0x03, 0x0b, 0xf3, 0x04, 0xe9, 0x09, 0x04,
  0x03, 0xfc, 0xee, 0x05, 0x04, 0x09, 0x03, 0xff, 0xf6, 0x09, 0xf9, 0xf9,
  0xf7, 0x01, 0xf8, 0xe9, 0x01, 0xeb, 0x01, 0xf3, 0xf8, 0xff, 0x00, 0xe7,
  0x00, 0x08, 0xfe, 0x05, 0x07, 0x06, 0xee, 0x0d, 0xff, 0x02, 0xf8, 0x0a,
  0xf4, 0x15, 0xf6, 0xf5, 0xf5, 0x0e, 0x14, 0x05, 0xf1, 0xeb, 0xef, 0x0a,
  0x0f, 0x03, 0xf5, 0xdf, 0x0a, 0x10, 0x15, 0xf7, 0xf9, 0x01, 0x09, 0xfb,
  0xf4, 0xee, 0x00, 0xee, 0xf7, 0x0a, 0x06, 0xf4, 0xef, 0xff, 0x0c, 0x9d,
  0x01, 0xf5, 0xed, 0x01, 0x0a, 0x81, 0xf9, 0xfa, 0xe6, 0xfc, 0xfb, 0xc4,
  0xf6, 0xf8, 0xf2, 0x00, 0xf7, 0xe5, 0xf3, 0x04, 0xfd, 0x02, 0xf6, 0xf3,
  0xf5, 0x03, 0xf7, 0x05, 0xf7, 0xef, 0xf0, 0x03, 0xea, 0x0a, 0xe1, 0xf3,
  0xf2, 0x05, 0xfd, 0x06, 0xfd, 0x07, 0xfc, 0x06, 0x02, 0xfb, 0xf4, 0x02,
  0x0a, 0x02, 0x03, 0xfa, 0x19, 0x01, 0x05, 0xfc, 0xff, 0x02, 0x18, 0x00,
  0xff, 0xff, 0xf1, 0x03, 0x01, 0xfa, 0x04, 0xf8, 0xed, 0x01, 0x02, 0xe5,
  0x00, 0xf7, 0xe3, 0xff, 0xfc, 0xd4, 0xfb, 0x00, 0xe3, 0xfc, 0x03, 0xf6,
  0x05, 0x05, 0x01, 0xfe, 0xfa, 0x05, 0x05, 0x07, 0xff, 0xfd, 0xf1, 0x09,
  0xfd, 0x01, 0xf7, 0x09, 0xf2, 0x06, 0xfc, 0xfe, 0xf7, 0x10, 0xdb, 0x12,
  0xe2, 0x08, 0xff, 0xe8, 0x0c, 0xf8, 0xff, 0xfe, 0xff, 0xf0, 0x11, 0x11,
  0x06, 0x0c, 0x04, 0xf8, 0xf6, 0xfd, 0xff, 0x03, 0x01, 0xfb, 0xfd, 0x12,
  0x04, 0xfb, 0xf9, 0xf6, 0xf6, 0xe5, 0xe8, 0xfd, 0xdf, 0xfa, 0xe3, 0xd4,
  0xf5, 0x02, 0xfa, 0x0a, 0xdc, 0xf2, 0x02, 0x04, 0x01, 0x0e, 0x03, 0xff,
  0xff, 0x08, 0xf4, 0x08, 0x11, 0x03, 0x00, 0x01, 0xee, 0x0b, 0xee, 0xfc,
  0xfb, 0x03, 0x00, 0x00, 0xfa, 0x10, 0x05, 0xfc, 0x0a, 0xe8, 0xfb, 0x0a,
  0x01, 0xf8, 0xfc, 0x01, 0xf3, 0x1c, 0xf4, 0x0a, 0x06, 0xf5, 0xd3, 0x0a,
  0xf9, 0x00, 0x02, 0x00, 0xed, 0x05, 0xe2, 0x0b, 0xfe, 0x0b, 0xeb, 0x08,
  0xf1, 0x04, 0xe9, 0x05, 0xd4, 0xf6, 0xf2, 0x07, 0xf1, 0x07, 0xf7, 0xf8,
  0xfc, 0x07, 0xf8, 0x00, 0xfe, 0xf6, 0x01, 0x03, 0xf8, 0x04, 0x10, 0xfe,
  0x08, 0x0b, 0xfb, 0x02, 0x02, 0xea, 0xfd, 0xff, 0xfe, 0xef, 0x06, 0x00,
  0xff, 0xfb, 0x02, 0xfe, 0xf8, 0x04, 0x0d, 0x01, 0xf9, 0x07, 0xfa, 0x10,
  0xf7, 0x0d, 0xf9, 0x03, 0xef, 0x0c, 0xe6, 0x01, 0x00, 0x0b, 0xc3, 0xf4,
  0xde, 0x02, 0xf6, 0x13, 0xde, 0xfe, 0xfb, 0x09, 0xe9, 0x01, 0xe4, 0xfa,
  0x03, 0x02, 0x01, 0xfd, 0xd5, 0xf3, 0x07, 0x07, 0x05, 0x0a, 0xf0, 0xf6,
  0x06, 0x0c, 0xe8, 0xfc, 0x07, 0xf8, 0x08, 0x05, 0xfb, 0x01, 0xfb, 0xee,
  0x04, 0x04, 0xf9, 0x02, 0xf6, 0xe9, 0x02, 0xf6, 0xff, 0xfe, 0xf5, 0xfc,
  0x07, 0x08, 0xfe, 0xfc, 0xde, 0x07, 0xf8, 0x13, 0xf5, 0x0b, 0xf5, 0x0d,
  0xff, 0xfe, 0x0d, 0x00, 0xf8, 0xff, 0x09, 0xf6, 0xf1, 0x0d, 0xfb, 0xf7,
  0xfe, 0x07, 0xff, 0x00, 0xf2, 0xea, 0xfe, 0x05, 0x03, 0x04, 0xfc, 0xfc,
  0xf6, 0xff, 0xee, 0x05, 0x10, 0xef, 0xf9, 0xff, 0xf7, 0x01, 0x04, 0x06,
  0xfe, 0x0c, 0xf2, 0xfe, 0xfa, 0xff, 0xf9, 0x00, 0xfc, 0xfe, 0xf4, 0x00,
  0x12, 0xfe, 0x01, 0x02, 0xf4, 0xf9, 0xf1, 0x19, 0x04, 0xff, 0xfb, 0xf6,
  0x08, 0x0d, 0xe9, 0x14, 0x09, 0x0d, 0xfa, 0x00, 0x0e, 0xfe, 0x01, 0xed,
  0x06, 0xfc, 0xfb, 0x0f, 0x07, 0xd4, 0xf0, 0x05, 0xf8, 0x0b, 0x02, 0xe0,
  0xfa, 0x00, 0xf7, 0xff, 0x07, 0xf1, 0x02, 0x08, 0x09, 0xfc, 0x09, 0xf4,
  0x05, 0xf8, 0x02, 0x05, 0x01, 0xfd, 0x07, 0x01, 0xfb, 0xff, 0x0c, 0x02,
  0x00, 0xf1, 0xfe, 0xf7, 0x0a, 0xf7, 0xfd, 0xf9, 0xf9, 0x11, 0x02, 0x07,
  0xfb, 0x0e, 0xfc, 0xf9, 0x03, 0x09, 0x16, 0xf9, 0xf1, 0xfe, 0x05, 0x08,
  0xf8, 0x00, 0x0d, 0xfa, 0xfb, 0xd8, 0xfd, 0x08, 0xf2, 0x06, 0xfc, 0xd7,
  0xfd, 0x01, 0xf2, 0x00, 0xfd, 0x02, 0x02, 0x05, 0xff, 0xee, 0xfa, 0x01,
  0xfa, 0xfb, 0x06, 0xff, 0x0c, 0xfe, 0x00, 0x14, 0xfd, 0xf8, 0x09, 0xf8,
  0xf7, 0xfb, 0x05, 0xff, 0x08, 0xfd, 0x01, 0xf1, 0x07, 0xfe, 0x01, 0xf4,
  0xff, 0xfd, 0xf5, 0x00, 0xfd, 0x06, 0xf7, 0x05, 0x00, 0x05, 0x03, 0x0b,
  0xfb, 0x01, 0x09, 0x01, 0x0f, 0x01, 0xf1, 0xfc, 0x19, 0xf2, 0xf7, 0x10,
  0x00, 0xfc, 0xfd, 0x0e, 0xfa, 0xec, 0x0c, 0x00, 0xf5, 0x01, 0xf6, 0x03,
  0x04, 0x00, 0x04, 0xf5, 0xfb, 0xf0, 0x00, 0xff, 0xfd, 0x00, 0x03, 0xfc,
  0xfd, 0xf8, 0x09, 0x04, 0x08, 0xf2, 0xfa, 0xf8, 0xfd, 0x08, 0x01, 0x01,
  0xf9, 0xf3, 0xff, 0xfb, 0xff, 0xfd, 0xf7, 0x0d, 0xf5, 0xff, 0x01, 0x00,
  0xfe, 0x13, 0xed, 0xe4, 0x09, 0x06, 0xf4, 0xfa, 0xf4, 0xf4, 0x00, 0xfe,
  0xf9, 0xf2, 0x0f, 0xf6, 0xfe, 0xf3, 0x04, 0xf8, 0x0e, 0xff, 0xfa, 0xf7,
  0x0e, 0xf5, 0x09, 0xfd, 0xff, 0x02, 0x01, 0x03, 0xfb, 0xf7, 0xfc, 0xe7,
  0x07, 0xf9, 0xf1, 0x05, 0x02, 0xe2, 0x00, 0xeb, 0xec, 0x08, 0x01, 0xe3,
  0xfa, 0xd1, 0xf8, 0x05, 0x00, 0xef, 0xf3, 0xda, 0x02, 0xe7, 0xfb, 0x0f,
  0xf2, 0x08, 0xf8, 0xfb, 0xfc, 0xf8, 0x0a, 0x00, 0xf0, 0x02, 0x04, 0x05,
  0xfb, 0xd6, 0xfd, 0xfe, 0x04, 0xec, 0xf1, 0xf3, 0xf1, 0x0b, 0xfd, 0x02,
  0x01, 0xf9, 0x08, 0x03, 0xfc, 0xff, 0x02, 0xfd, 0x04, 0xfc, 0x00, 0xf3,
  0xf0, 0xf4, 0x11, 0xfe, 0xfe, 0xda, 0xfe, 0xf6, 0xdb, 0x0e, 0xfc, 0xd4,
  0x0e, 0xf3, 0xd9, 0x1c, 0xff, 0xd7, 0xfa, 0xec, 0xd6, 0x0f, 0xff, 0xf4,
  0xdd, 0xef, 0xfd, 0xe1, 0x03, 0xf0, 0xe3, 0x03, 0x01, 0xfa, 0xfd, 0xe5,
  0xf8, 0xf9, 0x0a, 0x11, 0x01, 0xf5, 0xea, 0x01, 0x10, 0x16, 0x04, 0xfc,
  0x18, 0xfe, 0x17, 0xfa, 0xfe, 0xe7, 0x0d, 0xfc, 0xfa, 0xfb, 0xfc, 0x1b,
  0xfc, 0x08, 0x06, 0xed, 0xfc, 0x17, 0x14, 0x17, 0xfb, 0xf6, 0xed, 0x1d,
  0x1d, 0x0d, 0xef, 0xff, 0xf4, 0x00, 0x1a, 0x02, 0xf9, 0x06, 0x02, 0xf3,
  0xf4, 0xf8, 0x04, 0xfe, 0x1b, 0xf0, 0xca, 0x05, 0xfc, 0xfe, 0x09, 0xe2,
  0xf8, 0xfd, 0xf2, 0x12, 0x0a, 0xf3, 0xe4, 0x00, 0xf3, 0x12, 0xe7, 0xf9,
  0xe9, 0xf5, 0x01, 0x24, 0x09, 0x12, 0x0e, 0xff, 0x0b, 0xf6, 0x03, 0xf1,
  0x14, 0xfc, 0xf8, 0xf8, 0x1a, 0x00, 0x01, 0x0a, 0xf9, 0xf2, 0xfe, 0x0d,
  0x0f, 0x10, 0xef, 0x04, 0xf7, 0xfd, 0x05, 0x0c, 0x05, 0xf9, 0xe5, 0xf4,
  0xfe, 0x02, 0xff, 0x04, 0xe1, 0xf8, 0x14, 0x02, 0xfb, 0x14, 0xf0, 0xfd,
  0x00, 0x01, 0x06, 0xf8, 0x0e, 0xfc, 0xee, 0xfd, 0xfb, 0x02, 0x12, 0x00,
  0xf2, 0x03, 0x00, 0x00, 0xf0, 0x03, 0x10, 0xff, 0xfb, 0x1f, 0xf9, 0x00,
  0x08, 0xfc, 0x15, 0xf5, 0x04, 0xfa, 0x0e, 0xfc, 0x03, 0xfd, 0x0d, 0x08,
  0xfd, 0x03, 0xf2, 0x03, 0x08, 0xfd, 0xfe, 0x0a, 0xf6, 0x07, 0xf6, 0x0a,
  0x0c, 0x0b, 0xfd, 0xfc, 0xde, 0x00, 0x09, 0x01, 0xfd, 0xfd, 0xe2, 0x0c,
  0x11, 0xfd, 0xef, 0x17, 0x08, 0xfb, 0x05, 0x00, 0x04, 0x0b, 0x09, 0xfb,
  0xf2, 0x08, 0xf7, 0x06, 0x04, 0x07, 0x00, 0xff, 0x09, 0xfb, 0x08, 0xf4,
  0xfc, 0xf5, 0xf8, 0x00, 0x06, 0xf6, 0x07, 0xfb, 0x10, 0xed, 0x08, 0xee,
  0x08, 0x01, 0x00, 0xfe, 0x06, 0x00, 0xf5, 0x07, 0xf7, 0xf3, 0xfa, 0x05,
  0xf6, 0x0a, 0xf9, 0xf6, 0xfb, 0x02, 0x06, 0x0c, 0xff, 0xed, 0xe6, 0x00,
  0xec, 0x03, 0x00, 0xf4, 0x00, 0x0c, 0xfd, 0xfc, 0xfb, 0x15, 0x03, 0x08,
  0xf9, 0x02, 0xfd, 0xfd, 0x07, 0xff, 0xf3, 0x0d, 0xfe, 0x00, 0xf0, 0xfb,
  0x06, 0x02, 0x03, 0xfc, 0xf6, 0xfd, 0x06, 0x04, 0xf8, 0x14, 0xf7, 0xfa,
  0x12, 0xe8, 0x06, 0xec, 0x07, 0xf1, 0x01, 0x00, 0x02, 0xf9, 0xfb, 0xf2,
  0xfe, 0x08, 0x04, 0xfe, 0x03, 0xff, 0xfc, 0x0b, 0x01, 0x02, 0x0f, 0x07,
  0xf9, 0x06, 0xff, 0x07, 0x00, 0x03, 0xf2, 0x00, 0x03, 0xf1, 0xf8, 0x03,
  0xfa, 0x04, 0xf4, 0x0b, 0x01, 0x06, 0xf6, 0xfb, 0xf2, 0x00, 0x02, 0x07,
  0xf0, 0xfd, 0xfb, 0xfd, 0x0c, 0x04, 0x04, 0xff, 0x02, 0xfa, 0x04, 0xf4,
  0xfe, 0xfb, 0xf9, 0x04, 0xea, 0x04, 0x13, 0xec, 0xf4, 0xed, 0x05, 0xf7,
  0x04, 0xfd, 0x08, 0xf2, 0xfc, 0xf3, 0xfa, 0xfe, 0x02, 0xf3, 0x04, 0xff,
  0xf4, 0x06, 0xf5, 0x02, 0x05, 0x0b, 0xf7, 0xfd, 0x06, 0xff, 0x0b, 0x02,
  0xfe, 0x01, 0x0a, 0xfd, 0x08, 0xff, 0xff, 0x0a, 0xef, 0x0d, 0x0c, 0xf6,
  0xfe, 0x0d, 0xf5, 0xfd, 0xf9, 0xfe, 0xf2, 0x0a, 0xfc, 0x06, 0xfb, 0x01,
  0x0d, 0xf9, 0x01, 0x0d, 0x0e, 0x02, 0x0e, 0xf3, 0xf3, 0xfd, 0xe4, 0xfe,
  0x0b, 0xf9, 0x01, 0xf4, 0x03, 0xf1, 0xfd, 0x03, 0x10, 0xf9, 0xfa, 0xf9,
  0xfc, 0x0e, 0x04, 0xe8, 0xf8, 0x00, 0xfc, 0x09, 0x09, 0x05, 0xfb, 0xfc,
  0x00, 0xfc, 0x08, 0xf8, 0x08, 0x0a, 0x0d, 0x05, 0x07, 0x03, 0x06, 0x08,
  0x01, 0xf9, 0xf9, 0xfb, 0xff, 0xf8, 0xf7, 0x0c, 0x03, 0xfb, 0xfe, 0x07,
  0xfd, 0x0b, 0x06, 0xfd, 0xff, 0x02, 0xfd, 0x01, 0x05, 0x06, 0x0e, 0xff,
  0x07, 0xec, 0xf9, 0x09, 0xf2, 0x06, 0x0c, 0xfc, 0xf9, 0xeb, 0x07, 0xf1,
  0x0a, 0xf6, 0x0e, 0xf6, 0x06, 0xfc, 0xff, 0xfd, 0x05, 0xf8, 0x03, 0x07,
  0x02, 0xf9, 0xff, 0x02, 0x0b, 0xfd, 0xeb, 0x07, 0x07, 0xf6, 0x0a, 0x01,
  0xf2, 0x06, 0x09, 0x12, 0x03, 0x07, 0xf4, 0x08, 0xf1, 0xfb, 0x07, 0xf6,
  0xf7, 0xff, 0x00, 0x03, 0x03, 0xfb, 0xf0, 0x03, 0x04, 0x02, 0x00, 0x04,
  0x06, 0x0c, 0x05, 0x00, 0x01, 0x0a, 0x0e, 0xf8, 0xfc, 0x00, 0xf2, 0x01,
  0x04, 0x00, 0x08, 0xf6, 0xff, 0xf6, 0x00, 0xfe, 0x01, 0xfc, 0xf7, 0x0d,
  0xf7, 0xf7, 0x03, 0xfc, 0xfd, 0x13, 0x06, 0xf4, 0x08, 0xf8, 0x00, 0x0a,
  0xfc, 0x00, 0x09, 0xfd, 0xfd, 0xfd, 0x04, 0xf6, 0x0d, 0xf5, 0xfe, 0x01,
  0xf3, 0x0e, 0x08, 0xfc, 0x00, 0xfc, 0xfb, 0x05, 0x05, 0xfe, 0xff, 0x01,
  0xfb, 0xf8, 0x01, 0xfa, 0x07, 0x03, 0x09, 0x11, 0x09, 0x02, 0x02, 0x01,
  0x01, 0xfc, 0x04, 0xf7, 0xfa, 0x04, 0xfd, 0x14, 0x02, 0xea, 0x05, 0xe6,
  0x00, 0x08, 0x0d, 0xff, 0xfc, 0xfe, 0xf9, 0xfe, 0x0c, 0xfc, 0x03, 0xf7,
  0x0b, 0xf7, 0xfc, 0xfc, 0x03, 0x04, 0xfa, 0xf2, 0x07, 0x03, 0x08, 0x00,
  0x02, 0xfb, 0x05, 0x00, 0x0b, 0xfe, 0xf3, 0x03, 0x08, 0xf2, 0x00, 0xff,
  0xf4, 0xfc, 0x0a, 0xf8, 0x02, 0xf6, 0xfe, 0xf2, 0x13, 0xef, 0x06, 0x01,
  0xfb, 0xfd, 0x0f, 0x04, 0x04, 0x0d, 0x0b, 0x09, 0xfe, 0x01, 0xfa, 0x07,
  0x03, 0x0e, 0xf2, 0xe6, 0x10, 0xd2, 0xe7, 0xf6, 0x11, 0xfb, 0xfd, 0xfa,
  0xef, 0xfa, 0x21, 0xf9, 0xff, 0x09, 0xf5, 0xe7, 0xfe, 0xf1, 0xf6, 0x00,
  0xfc, 0xf9, 0x0f, 0x04, 0x04, 0xf6, 0x09, 0x05, 0x02, 0xf9, 0x05, 0xf9,
  0xe2, 0x0a, 0xfe, 0xfb, 0x04, 0x09, 0xfc, 0x05, 0x03, 0xf5, 0xfe, 0xf9,
  0xfc, 0x00, 0x09, 0xee, 0xfe, 0xf6, 0xf5, 0xfa, 0x13, 0xe1, 0x0e, 0xfc,
  0x11, 0xeb, 0x02, 0xf2, 0x0b, 0x00, 0xf2, 0xec, 0xec, 0xf3, 0xf3, 0x8d,
  0xf9, 0xf8, 0xe0, 0xfe, 0xf8, 0xf0, 0xf2, 0x00, 0xe7, 0xff, 0xf3, 0xe3,
  0xff, 0xfe, 0xdd, 0x04, 0xf7, 0xf2, 0xeb, 0xfc, 0xec, 0x03, 0xf4, 0xfc,
  0xe9, 0xfe, 0x08, 0x07, 0xe9, 0xf5, 0x05, 0xfa, 0x11, 0x03, 0x01, 0xf4,
  0xff, 0xfb, 0xfc, 0xfe, 0x03, 0xfd, 0x09, 0xfc, 0xfc, 0x0a, 0x02, 0x05,
  0xf8, 0xff, 0x03, 0x02, 0xf4, 0x0a, 0x03, 0x0b, 0x0a, 0x03, 0xf2, 0x16,
  0xef, 0xee, 0xe5, 0xfc, 0xee, 0xc2, 0xfd, 0x00, 0xe2, 0xfc, 0xed, 0xf3,
  0xf3, 0x06, 0xe2, 0xfe, 0xe5, 0xdf, 0x00, 0x02, 0xe0, 0x07, 0xf6, 0xef,
  0xe8, 0x04, 0xea, 0x07, 0xf8, 0x09, 0xfc, 0xfe, 0x09, 0x07, 0xf6, 0xf9,
  0xf7, 0x01, 0xf0, 0xfe, 0xf7, 0xfa, 0x03, 0x05, 0xfd, 0x07, 0xf8, 0x04,
  0x19, 0x02, 0x01, 0x0c, 0xed, 0x04, 0xfe, 0x07, 0x02, 0x06, 0xe8, 0xf0,
  0x0a, 0x06, 0x03, 0x0e, 0x05, 0x0b, 0xf7, 0xf3, 0xdc, 0xff, 0xef, 0xc6,
  0xfc, 0x00, 0xee, 0xfc, 0xf5, 0xf1, 0x00, 0x02, 0xe2, 0xfd, 0xf6, 0xdd,
  0x02, 0x01, 0xf2, 0xfb, 0x07, 0xf3, 0xfe, 0x01, 0xe0, 0x00, 0xfc, 0xff,
  0x03, 0xfe, 0xf9, 0x05, 0xf4, 0x0a, 0x06, 0xf9, 0xfe, 0x00, 0x00, 0x11,
  0x02, 0xff, 0xf8, 0xf5, 0x05, 0x05, 0x00, 0x01, 0xf4, 0x0c, 0xfc, 0x0e,
  0xe8, 0x06, 0x03, 0x01, 0x05, 0x03, 0x14, 0xfb, 0xfe, 0x17, 0x08, 0x11,
  0xf6, 0xf1, 0xd6, 0xff, 0xf0, 0xd4, 0x06, 0xfa, 0xe5, 0xf9, 0x0f, 0xe0,
  0x07, 0x02, 0xf1, 0x05, 0x02, 0xf0, 0x15, 0x08, 0xe8, 0x05, 0x09, 0xfc,
  0xfd, 0xff, 0xf1, 0x0b, 0xfe, 0xf8, 0x03, 0x04, 0xe7, 0xff, 0xf7, 0x0b,
  0xff, 0x03, 0xfe, 0xf9, 0xf1, 0x1b, 0xfe, 0xfb, 0x02, 0xf2, 0x02, 0xff,
  0xf7, 0x01, 0xff, 0xfe, 0x00, 0x0a, 0xf7, 0x00, 0x01, 0xff, 0xf7, 0x0c,
  0x16, 0xef, 0xff, 0x06, 0xf6, 0x0b, 0xf7, 0xfe, 0x06, 0x03, 0xe9, 0xf9,
  0x06, 0xfa, 0x03, 0x03, 0x09, 0xf1, 0x0c, 0x00, 0x00, 0x07, 0xfd, 0xfb,
  0x02, 0x07, 0xd6, 0x07, 0xfc, 0x00, 0x06, 0x00, 0xe3, 0x02, 0xfe, 0xff,
  0x00, 0xff, 0x0a, 0x02, 0x04, 0x06, 0xfa, 0x07, 0x07, 0xff, 0xf8, 0xf9,
  0x00, 0xef, 0x07, 0x0b, 0x04, 0x05, 0xfb, 0x0a, 0xff, 0x0e, 0x00, 0x0f,
  0xf6, 0xf5, 0x01, 0x0d, 0x05, 0x06, 0xfb, 0xe1, 0xf8, 0x0b, 0x0e, 0x06,
  0xdf, 0x08, 0x10, 0x01, 0xf9, 0xe9, 0xf7, 0x04, 0x15, 0x04, 0x0b, 0xf6,
  0x0c, 0x02, 0x04, 0x0a, 0x0e, 0xfd, 0x00, 0x03, 0xe3, 0x07, 0xf8, 0xfb,
  0x05, 0x00, 0xf3, 0x07, 0xf5, 0x04, 0x08, 0xff, 0xf4, 0xff, 0xfc, 0xfd,
  0xf8, 0xf0, 0x06, 0x06, 0xf8, 0x09, 0xf7, 0xea, 0x02, 0xfa, 0xf1, 0xff,
  0xe9, 0x04, 0x04, 0xfe, 0xff, 0x08, 0x01, 0xef, 0x00, 0xf9, 0x11, 0x13,
  0xf2, 0xfe, 0x03, 0x03, 0x15, 0x03, 0xf5, 0x0a, 0x14, 0xf5, 0xe7, 0xe6,
  0x04, 0xf9, 0x07, 0xff, 0xfa, 0xfc, 0x04, 0x05, 0x01, 0x0c, 0x13, 0x0e,
  0x04, 0x09, 0xee, 0x13, 0xf8, 0xff, 0xfd, 0x05, 0xe5, 0x0e, 0x0d, 0xf4,
  0xfd, 0x0a, 0xf6, 0x01, 0xfc, 0xf6, 0xf1, 0xf5, 0x08, 0xfd, 0xf2, 0xff,
  0xf3, 0xfb, 0x00, 0xfc, 0x01, 0xf8, 0xec, 0xfa, 0xf9, 0xf1, 0x07, 0xfa,
  0xfc, 0xee, 0xf5, 0xf6, 0x07, 0x06, 0xf6, 0xed, 0x03, 0xf0, 0x0c, 0x02,
  0xeb, 0x0c, 0x1e, 0xef, 0x0e, 0xe8, 0xf2, 0x01, 0x06, 0xfa, 0x0a, 0xee,
  0xf8, 0x02, 0xfd, 0x00, 0x09, 0xeb, 0xfd, 0x06, 0xfd, 0x0f, 0x00, 0xdc,
  0xf5, 0x0a, 0xef, 0x0e, 0x01, 0xe9, 0xf8, 0xfb, 0xfb, 0x0b, 0xfa, 0xfe,
  0x00, 0xec, 0xf9, 0xfb, 0xf4, 0xfb, 0xf3, 0x02, 0xf5, 0xfa, 0xfb, 0x04,
  0xf5, 0xfc, 0x01, 0xf0, 0x08, 0xf7, 0x0a, 0xf3, 0xff, 0xf0, 0x08, 0xf6,
  0x03, 0xea, 0xf8, 0xff, 0x09, 0x04, 0xef, 0x02, 0x16, 0xf7, 0xfd, 0xdd,
  0xf2, 0x07, 0x07, 0xf3, 0x07, 0xf3, 0xf5, 0x09, 0xfd, 0xfe, 0x06, 0xe9,
  0xf2, 0x12, 0xf0, 0x08, 0x01, 0xf6, 0xfe, 0x15, 0xfc, 0x00, 0xf6, 0xe2,
  0x00, 0x07, 0xed, 0x03, 0xf8, 0x01, 0x0c, 0xf7, 0xef, 0x01, 0x05, 0xfa,
  0xfc, 0x05, 0xe9, 0x09, 0x0d, 0xf4, 0x0c, 0xf5, 0x03, 0xef, 0x0c, 0xed,
  0xf8, 0xed, 0xfe, 0xfa, 0x07, 0xf9, 0x06, 0xf7, 0x0f, 0xfc, 0x06, 0x01,
  0xef, 0x01, 0x1e, 0xf2, 0xff, 0xf1, 0xf7, 0xff, 0x14, 0xfc, 0xfc, 0xf5,
  0xef, 0x0d, 0xff, 0xfe, 0xfd, 0xe4, 0xfc, 0x01, 0xf2, 0x0a, 0xfa, 0xfa,
  0xfb, 0x05, 0xf1, 0xf9, 0xfa, 0x09, 0xfd, 0xf5, 0xea, 0x07, 0xfa, 0x03,
  0x10, 0x12, 0xf7, 0xf6, 0x02, 0xfe, 0x07, 0x01, 0xfe, 0x0f, 0x08, 0xf1,
  0x16, 0x05, 0xe0, 0xff, 0x09, 0xf5, 0x03, 0xe1, 0xf3, 0xfd, 0x03, 0xf9,
  0x08, 0x08, 0x08, 0xfd, 0x0a, 0x0e, 0xf8, 0x05, 0xfd, 0xf2, 0xfb, 0xf7,
  0xfa, 0x13, 0xf4, 0xf3, 0xf7, 0xee, 0x03, 0x0b, 0xed, 0xfc, 0xf6, 0xf3,
  0xff, 0x0c, 0xe1, 0x05, 0xf8, 0x10, 0xfb, 0xfa, 0x06, 0xff, 0x00, 0x0d,
  0xf3, 0x03, 0x0c, 0xf0, 0x02, 0x12, 0x0f, 0x0a, 0x04, 0xec, 0x00, 0xf9,
  0x0c, 0x03, 0xd6, 0x1e, 0x03, 0xf1, 0x14, 0xf8, 0xc5, 0x01, 0x08, 0xfb,
  0x14, 0xed, 0xe2, 0xf9, 0x04, 0x02, 0x17, 0xef, 0xfd, 0xf5, 0x09, 0x05,
  0x00, 0x00, 0x00, 0x00, 0x00, 0x00, 0x00, 0x00, 0x7a, 0xfe, 0xff, 0xff,
  0x04, 0x00, 0x00, 0x00, 0x08, 0x00, 0x00, 0x00, 0xff, 0xff, 0xff, 0xff,
  0xd6, 0x02, 0x00, 0x00, 0x00, 0x00, 0x00, 0x00, 0x00, 0x00, 0x00, 0x00,
  0x00, 0x00, 0x00, 0x00, 0x9a, 0xfe, 0xff, 0xff, 0x04, 0x00, 0x00, 0x00,
  0x18, 0x00, 0x00, 0x00, 0x75, 0x00, 0x00, 0x00, 0xf5, 0xfa, 0xff, 0xff,
  0x99, 0xfa, 0xff, 0xff, 0x59, 0xff, 0xff, 0xff, 0x82, 0x05, 0x00, 0x00,
  0xcc, 0xfe, 0xff, 0xff, 0x00, 0x00, 0x00, 0x00, 0x00, 0x00, 0x00, 0x00,
  0x00, 0x00, 0x00, 0x00, 0xca, 0xfe, 0xff, 0xff, 0x04, 0x00, 0x00, 0x00,
  0x18, 0x00, 0x00, 0x00, 0x23, 0x05, 0x00, 0x00, 0x08, 0x06, 0x00, 0x00,
  0x47, 0xfa, 0xff, 0xff, 0x2a, 0x13, 0x00, 0x00, 0x30, 0x03, 0x00, 0x00,
  0x6b, 0x08, 0x00, 0x00, 0x00, 0x00, 0x00, 0x00, 0x00, 0x00, 0x00, 0x00,
  0x00, 0x00, 0x00, 0x00, 0xfa, 0xfe, 0xff, 0xff, 0x04, 0x00, 0x00, 0x00,
  0x28, 0x00, 0x00, 0x00, 0x39, 0x00, 0x00, 0x00, 0x4c, 0xfe, 0xff, 0xff,
  0xa8, 0x03, 0x00, 0x00, 0x9b, 0x00, 0x00, 0x00, 0xca, 0xfb, 0xff, 0xff,
  0x54, 0xfe, 0xff, 0xff, 0xc9, 0x00, 0x00, 0x00, 0x61, 0x02, 0x00, 0x00,
  0x41, 0xfe, 0xff, 0xff, 0x38, 0xff, 0xff, 0xff, 0x00, 0x00, 0x00, 0x00,
  0x00, 0xf7, 0xff, 0xff, 0x00, 0x00, 0x00, 0x00, 0x00, 0x00, 0x00, 0x00,
  0x00, 0x00, 0x00, 0x00, 0x10, 0xf7, 0xff, 0xff, 0x00, 0x00, 0x00, 0x00,
  0x00, 0x00, 0x00, 0x00, 0x00, 0x00, 0x00, 0x00, 0x0f, 0x00, 0x00, 0x00,
  0x4d, 0x4c, 0x49, 0x52, 0x20, 0x43, 0x6f, 0x6e, 0x76, 0x65, 0x72, 0x74,
  0x65, 0x64, 0x2e, 0x00, 0x01, 0x00, 0x00, 0x00, 0x14, 0x00, 0x00, 0x00,
  0x00, 0x00, 0x0e, 0x00, 0x18, 0x00, 0x04, 0x00, 0x08, 0x00, 0x0c, 0x00,
  0x10, 0x00, 0x14, 0x00, 0x0e, 0x00, 0x00, 0x00, 0x34, 0x02, 0x00, 0x00,
  0x28, 0x02, 0x00, 0x00, 0x1c, 0x02, 0x00, 0x00, 0x14, 0x00, 0x00, 0x00,
  0x04, 0x00, 0x00, 0x00, 0x04, 0x00, 0x00, 0x00, 0x6d, 0x61, 0x69, 0x6e,
  0x00, 0x00, 0x00, 0x00, 0x08, 0x00, 0x00, 0x00, 0xe0, 0x01, 0x00, 0x00,
  0x88, 0x01, 0x00, 0x00, 0x24, 0x01, 0x00, 0x00, 0xd4, 0x00, 0x00, 0x00,
  0xac, 0x00, 0x00, 0x00, 0x74, 0x00, 0x00, 0x00, 0x28, 0x00, 0x00, 0x00,
  0x04, 0x00, 0x00, 0x00, 0x4a, 0xfe, 0xff, 0xff, 0x06, 0x00, 0x00, 0x00,
  0x10, 0x00, 0x00, 0x00, 0x04, 0x00, 0x00, 0x00, 0x01, 0x00, 0x00, 0x00,
  0x0f, 0x00, 0x00, 0x00, 0x01, 0x00, 0x00, 0x00, 0x0d, 0x00, 0x00, 0x00,
  0x22, 0xff, 0xff, 0xff, 0x00, 0x00, 0x00, 0x09, 0x04, 0x00, 0x00, 0x00,
  0x24, 0x00, 0x00, 0x00, 0x18, 0x00, 0x00, 0x00, 0x0c, 0x00, 0x00, 0x00,
  0x00, 0x00, 0x06, 0x00, 0x08, 0x00, 0x04, 0x00, 0x06, 0x00, 0x00, 0x00,
  0x00, 0x00, 0x80, 0x3f, 0x01, 0x00, 0x00, 0x00, 0x0d, 0x00, 0x00, 0x00,
  0x01, 0x00, 0x00, 0x00, 0x0c, 0x00, 0x00, 0x00, 0x00, 0x00, 0x0e, 0x00,
  0x18, 0x00, 0x08, 0x00, 0x0c, 0x00, 0x10, 0x00, 0x07, 0x00, 0x14, 0x00,
  0x0e, 0x00, 0x00, 0x00, 0x00, 0x00, 0x00, 0x08, 0x03, 0x00, 0x00, 0x00,
  0x18, 0x00, 0x00, 0x00, 0x0c, 0x00, 0x00, 0x00, 0x04, 0x00, 0x00, 0x00,
  0x14, 0xf8, 0xff, 0xff, 0x01, 0x00, 0x00, 0x00, 0x0c, 0x00, 0x00, 0x00,
  0x03, 0x00, 0x00, 0x00, 0x0b, 0x00, 0x00, 0x00, 0x05, 0x00, 0x00, 0x00,
  0x01, 0x00, 0x00, 0x00, 0xe6, 0xfe, 0xff, 0xff, 0x02, 0x00, 0x00, 0x00,
  0x10, 0x00, 0x00, 0x00, 0x04, 0x00, 0x00, 0x00, 0x01, 0x00, 0x00, 0x00,
  0x0b, 0x00, 0x00, 0x00, 0x02, 0x00, 0x00, 0x00, 0x0a, 0x00, 0x00, 0x00,
  0x04, 0x00, 0x00, 0x00, 0x62, 0xff, 0xff, 0xff, 0x00, 0x00, 0x00, 0x01,
  0x24, 0x00, 0x00, 0x00, 0x18, 0x00, 0x00, 0x00, 0x04, 0x00, 0x00, 0x00,
  0x54, 0xff, 0xff, 0xff, 0x00, 0x00, 0x01, 0x01, 0x01, 0x00, 0x00, 0x00,
  0x01, 0x00, 0x00, 0x00, 0x01, 0x00, 0x00, 0x00, 0x0a, 0x00, 0x00, 0x00,
  0x03, 0x00, 0x00, 0x00, 0x09, 0x00, 0x00, 0x00, 0x07, 0x00, 0x00, 0x00,
  0x02, 0x00, 0x00, 0x00, 0x00, 0x00, 0x0e, 0x00, 0x1a, 0x00, 0x08, 0x00,
  0x0c, 0x00, 0x10, 0x00, 0x07, 0x00, 0x14, 0x00, 0x0e, 0x00, 0x00, 0x00,
  0x00, 0x00, 0x00, 0x05, 0x01, 0x00, 0x00, 0x00, 0x3c, 0x00, 0x00, 0x00,
  0x30, 0x00, 0x00, 0x00, 0x14, 0x00, 0x00, 0x00, 0x00, 0x00, 0x0e, 0x00,
  0x18, 0x00, 0x07, 0x00, 0x08, 0x00, 0x0c, 0x00, 0x10, 0x00, 0x14, 0x00,
  0x0e, 0x00, 0x00, 0x00, 0x00, 0x00, 0x00, 0x01, 0x02, 0x00, 0x00, 0x00,
  0x02, 0x00, 0x00, 0x00, 0x02, 0x00, 0x00, 0x00, 0x02, 0x00, 0x00, 0x00,
  0x01, 0x00, 0x00, 0x00, 0x09, 0x00, 0x00, 0x00, 0x01, 0x00, 0x00, 0x00,
  0x08, 0x00, 0x00, 0x00, 0x00, 0x00, 0x0e, 0x00, 0x14, 0x00, 0x00, 0x00,
  0x08, 0x00, 0x0c, 0x00, 0x07, 0x00, 0x10, 0x00, 0x0e, 0x00, 0x00, 0x00,
  0x00, 0x00, 0x00, 0x01, 0x30, 0x00, 0x00, 0x00, 0x24, 0x00, 0x00, 0x00,
  0x10, 0x00, 0x00, 0x00, 0x0c, 0x00, 0x10, 0x00, 0x06, 0x00, 0x08, 0x00,
  0x0c, 0x00, 0x07, 0x00, 0x0c, 0x00, 0x00, 0x00, 0x00, 0x00, 0x01, 0x01,
  0x01, 0x00, 0x00, 0x00, 0x01, 0x00, 0x00, 0x00, 0x01, 0x00, 0x00, 0x00,
  0x08, 0x00, 0x00, 0x00, 0x03, 0x00, 0x00, 0x00, 0x00, 0x00, 0x00, 0x00,
  0x06, 0x00, 0x00, 0x00, 0x03, 0x00, 0x00, 0x00, 0x00, 0x00, 0x0a, 0x00,
  0x10, 0x00, 0x04, 0x00, 0x08, 0x00, 0x0c, 0x00, 0x0a, 0x00, 0x00, 0x00,
  0x05, 0x00, 0x00, 0x00, 0x10, 0x00, 0x00, 0x00, 0x04, 0x00, 0x00, 0x00,
  0x01, 0x00, 0x00, 0x00, 0x00, 0x00, 0x00, 0x00, 0x01, 0x00, 0x00, 0x00,
  0x0e, 0x00, 0x00, 0x00, 0x01, 0x00, 0x00, 0x00, 0x0f, 0x00, 0x00, 0x00,
  0x01, 0x00, 0x00, 0x00, 0x0e, 0x00, 0x00, 0x00, 0x10, 0x00, 0x00, 0x00,
  0x40, 0x08, 0x00, 0x00, 0xcc, 0x07, 0x00, 0x00, 0x24, 0x07, 0x00, 0x00,
  0x90, 0x06, 0x00, 0x00, 0x50, 0x06, 0x00, 0x00, 0xd8, 0x05, 0x00, 0x00,
  0xf4, 0x04, 0x00, 0x00, 0x10, 0x04, 0x00, 0x00, 0x7c, 0x03, 0x00, 0x00,
  0xe8, 0x02, 0x00, 0x00, 0x4c, 0x02, 0x00, 0x00, 0xc8, 0x01, 0x00, 0x00,
  0x3c, 0x01, 0x00, 0x00, 0xc0, 0x00, 0x00, 0x00, 0x64, 0x00, 0x00, 0x00,
  0x04, 0x00, 0x00, 0x00, 0xb8, 0xff, 0xff, 0xff, 0x38, 0x00, 0x00, 0x00,
  0x14, 0x00, 0x00, 0x00, 0x04, 0x00, 0x00, 0x00, 0x02, 0x00, 0x00, 0x00,
  0xff, 0xff, 0xff, 0xff, 0x0a, 0x00, 0x00, 0x00, 0x19, 0x00, 0x00, 0x00,
  0x53, 0x74, 0x61, 0x74, 0x65, 0x66, 0x75, 0x6c, 0x50, 0x61, 0x72, 0x74,
  0x69, 0x74, 0x69, 0x6f, 0x6e, 0x65, 0x64, 0x43, 0x61, 0x6c, 0x6c, 0x3a,
  0x30, 0x00, 0x00, 0x00, 0x02, 0x00, 0x00, 0x00, 0x01, 0x00, 0x00, 0x00,
  0x0a, 0x00, 0x00, 0x00, 0x14, 0x00, 0x10, 0x00, 0x04, 0x00, 0x00, 0x00,
  0x00, 0x00, 0x08, 0x00, 0x00, 0x00, 0x00, 0x00, 0x00, 0x00, 0x0c, 0x00,
  0x14, 0x00, 0x00, 0x00, 0x40, 0x00, 0x00, 0x00, 0x1c, 0x00, 0x00, 0x00,
  0x04, 0x00, 0x00, 0x00, 0x04, 0x00, 0x00, 0x00, 0xff, 0xff, 0xff, 0xff,
  0x1c, 0x00, 0x00, 0x00, 0x1c, 0x00, 0x00, 0x00, 0x01, 0x00, 0x00, 0x00,
  0x19, 0x00, 0x00, 0x00, 0x73, 0x65, 0x72, 0x76, 0x69, 0x6e, 0x67, 0x5f,
  0x64, 0x65, 0x66, 0x61, 0x75, 0x6c, 0x74, 0x5f, 0x69, 0x6e, 0x70, 0x75,
  0x74, 0x5f, 0x31, 0x3a, 0x30, 0x00, 0x00, 0x00, 0x04, 0x00, 0x00, 0x00,
  0x01, 0x00, 0x00, 0x00, 0x1c, 0x00, 0x00, 0x00, 0x1c, 0x00, 0x00, 0x00,
  0x01, 0x00, 0x00, 0x00, 0xc8, 0xf8, 0xff, 0xff, 0x00, 0x00, 0x00, 0x09,
  0x64, 0x00, 0x00, 0x00, 0x0e, 0x00, 0x00, 0x00, 0x38, 0x00, 0x00, 0x00,
  0x14, 0x00, 0x00, 0x00, 0x04, 0x00, 0x00, 0x00, 0x02, 0x00, 0x00, 0x00,
  0xff, 0xff, 0xff, 0xff, 0x0a, 0x00, 0x00, 0x00, 0x34, 0xf9, 0xff, 0xff,
  0x14, 0x00, 0x00, 0x00, 0x04, 0x00, 0x00, 0x00, 0x01, 0x00, 0x00, 0x00,
  0x80, 0xff, 0xff, 0xff, 0xff, 0xff, 0xff, 0xff, 0x01, 0x00, 0x00, 0x00,
  0x00, 0x00, 0x80, 0x3b, 0x1e, 0x00, 0x00, 0x00, 0x53, 0x74, 0x61, 0x74,
  0x65, 0x66, 0x75, 0x6c, 0x50, 0x61, 0x72, 0x74, 0x69, 0x74, 0x69, 0x6f,
  0x6e, 0x65, 0x64, 0x43, 0x61, 0x6c, 0x6c, 0x3a, 0x30, 0x5f, 0x69, 0x6e,
  0x74, 0x38, 0x00, 0x00, 0x02, 0x00, 0x00, 0x00, 0x01, 0x00, 0x00, 0x00,
  0x0a, 0x00, 0x00, 0x00, 0x40, 0xf9, 0xff, 0xff, 0x00, 0x00, 0x00, 0x09,
  0x74, 0x00, 0x00, 0x00, 0x0d, 0x00, 0x00, 0x00, 0x54, 0x00, 0x00, 0x00,
  0x14, 0x00, 0x00, 0x00, 0x04, 0x00, 0x00, 0x00, 0x02, 0x00, 0x00, 0x00,
  0xff, 0xff, 0xff, 0xff, 0x0a, 0x00, 0x00, 0x00, 0x24, 0xf9, 0xff, 0xff,
  0x30, 0x00, 0x00, 0x00, 0x24, 0x00, 0x00, 0x00, 0x18, 0x00, 0x00, 0x00,
  0x04, 0x00, 0x00, 0x00, 0x01, 0x00, 0x00, 0x00, 0x2f, 0x00, 0x00, 0x00,
  0x00, 0x00, 0x00, 0x00, 0x00, 0x00, 0x00, 0x00, 0x01, 0x00, 0x00, 0x00,
  0x82, 0x9f, 0x52, 0x3e, 0x01, 0x00, 0x00, 0x00, 0xbb, 0xff, 0x83, 0x41,
  0x01, 0x00, 0x00, 0x00, 0x04, 0xcd, 0x0f, 0xc2, 0x13, 0x00, 0x00, 0x00,
  0x74, 0x66, 0x6c, 0x2e, 0x66, 0x75, 0x6c, 0x6c, 0x79, 0x5f, 0x63, 0x6f,
  0x6e, 0x6e, 0x65, 0x63, 0x74, 0x65, 0x64, 0x00, 0x02, 0x00, 0x00, 0x00,
  0x01, 0x00, 0x00, 0x00, 0x0a, 0x00, 0x00, 0x00, 0xc8, 0xf9, 0xff, 0xff,
  0x00, 0x00, 0x00, 0x09, 0x6c, 0x00, 0x00, 0x00, 0x0c, 0x00, 0x00, 0x00,
  0x54, 0x00, 0x00, 0x00, 0x14, 0x00, 0x00, 0x00, 0x04, 0x00, 0x00, 0x00,
  0x02, 0x00, 0x00, 0x00, 0xff, 0xff, 0xff, 0xff, 0xd6, 0x02, 0x00, 0x00,
  0xac, 0xf9, 0xff, 0xff, 0x30, 0x00, 0x00, 0x00, 0x24, 0x00, 0x00, 0x00,
  0x18, 0x00, 0x00, 0x00, 0x04, 0x00, 0x00, 0x00, 0x01, 0x00, 0x00, 0x00,
  0x80, 0xff, 0xff, 0xff, 0xff, 0xff, 0xff, 0xff, 0x00, 0x00, 0x00, 0x00,
  0x01, 0x00, 0x00, 0x00, 0x6d, 0x6d, 0x85, 0x3c, 0x01, 0x00, 0x00, 0x00,
  0x00, 0xe8, 0x84, 0x40, 0x01, 0x00, 0x00, 0x00, 0x00, 0x00, 0x00, 0x00,
  0x0b, 0x00, 0x00, 0x00, 0x74, 0x66, 0x6c, 0x2e, 0x72, 0x65, 0x73, 0x68,
  0x61, 0x70, 0x65, 0x00, 0x02, 0x00, 0x00, 0x00, 0x01, 0x00, 0x00, 0x00,
  0xd6, 0x02, 0x00, 0x00, 0x48, 0xfa, 0xff, 0xff, 0x00, 0x00, 0x00, 0x09,
  0x7c, 0x00, 0x00, 0x00, 0x0b, 0x00, 0x00, 0x00, 0x5c, 0x00, 0x00, 0x00,
  0x1c, 0x00, 0x00, 0x00, 0x04, 0x00, 0x00, 0x00, 0x04, 0x00, 0x00, 0x00,
  0xff, 0xff, 0xff, 0xff, 0x0b, 0x00, 0x00, 0x00, 0x0b, 0x00, 0x00, 0x00,
  0x06, 0x00, 0x00, 0x00, 0x34, 0xfa, 0xff, 0xff, 0x30, 0x00, 0x00, 0x00,
  0x24, 0x00, 0x00, 0x00, 0x18, 0x00, 0x00, 0x00, 0x04, 0x00, 0x00, 0x00,
  0x01, 0x00, 0x00, 0x00, 0x80, 0xff, 0xff, 0xff, 0xff, 0xff, 0xff, 0xff,
  0x00, 0x00, 0x00, 0x00, 0x01, 0x00, 0x00, 0x00, 0x6d, 0x6d, 0x85, 0x3c,
  0x01, 0x00, 0x00, 0x00, 0x00, 0xe8, 0x84, 0x40, 0x01, 0x00, 0x00, 0x00,
  0x00, 0x00, 0x00, 0x00, 0x10, 0x00, 0x00, 0x00, 0x3b, 0x3b, 0x3b, 0x63,
  0x6f, 0x6e, 0x76, 0x32, 0x64, 0x5f, 0x31, 0x2f, 0x62, 0x69, 0x61, 0x73,
  0x00, 0x00, 0x00, 0x00, 0x04, 0x00, 0x00, 0x00, 0x01, 0x00, 0x00, 0x00,
  0x0b, 0x00, 0x00, 0x00, 0x0b, 0x00, 0x00, 0x00, 0x06, 0x00, 0x00, 0x00,
  0xe0, 0xfa, 0xff, 0xff, 0x00, 0x00, 0x00, 0x09, 0x74, 0x00, 0x00, 0x00,
  0x0a, 0x00, 0x00, 0x00, 0x58, 0x00, 0x00, 0x00, 0x1c, 0x00, 0x00, 0x00,
  0x04, 0x00, 0x00, 0x00, 0x04, 0x00, 0x00, 0x00, 0xff, 0xff, 0xff, 0xff,
  0x0d, 0x00, 0x00, 0x00, 0x0d, 0x00, 0x00, 0x00, 0x06, 0x00, 0x00, 0x00,
  0xcc, 0xfa, 0xff, 0xff, 0x2c, 0x00, 0x00, 0x00, 0x20, 0x00, 0x00, 0x00,
  0x14, 0x00, 0x00, 0x00, 0x04, 0x00, 0x00, 0x00, 0x01, 0x00, 0x00, 0x00,
  0x80, 0xff, 0xff, 0xff, 0xff, 0xff, 0xff, 0xff, 0x01, 0x00, 0x00, 0x00,
  0x55, 0xeb, 0xed, 0x3b, 0x01, 0x00, 0x00, 0x00, 0x6a, 0xfd, 0xec, 0x3f,
  0x01, 0x00, 0x00, 0x00, 0x00, 0x00, 0x00, 0x00, 0x0f, 0x00, 0x00, 0x00,
  0x74, 0x66, 0x6c, 0x2e, 0x6d, 0x61, 0x78, 0x5f, 0x70, 0x6f, 0x6f, 0x6c,
  0x5f, 0x32, 0x64, 0x00, 0x04, 0x00, 0x00, 0x00, 0x01, 0x00, 0x00, 0x00,
  0x0d, 0x00, 0x00, 0x00, 0x0d, 0x00, 0x00, 0x00, 0x06, 0x00, 0x00, 0x00,
  0x70, 0xfb, 0xff, 0xff, 0x00, 0x00, 0x00, 0x09, 0x74, 0x00, 0x00, 0x00,
  0x09, 0x00, 0x00, 0x00, 0x58, 0x00, 0x00, 0x00, 0x1c, 0x00, 0x00, 0x00,
  0x04, 0x00, 0x00, 0x00, 0x04, 0x00, 0x00, 0x00, 0xff, 0xff, 0xff, 0xff,
  0x1a, 0x00, 0x00, 0x00, 0x1a, 0x00, 0x00, 0x00, 0x06, 0x00, 0x00, 0x00,
  0x5c, 0xfb, 0xff, 0xff, 0x2c, 0x00, 0x00, 0x00, 0x20, 0x00, 0x00, 0x00,
  0x14, 0x00, 0x00, 0x00, 0x04, 0x00, 0x00, 0x00, 0x01, 0x00, 0x00, 0x00,
  0x80, 0xff, 0xff, 0xff, 0xff, 0xff, 0xff, 0xff, 0x01, 0x00, 0x00, 0x00,
  0x55, 0xeb, 0xed, 0x3b, 0x01, 0x00, 0x00, 0x00, 0x6a, 0xfd, 0xec, 0x3f,
  0x01, 0x00, 0x00, 0x00, 0x00, 0x00, 0x00, 0x00, 0x0f, 0x00, 0x00, 0x00,
  0x3b, 0x3b, 0x3b, 0x3b, 0x63, 0x6f, 0x6e, 0x76, 0x32, 0x64, 0x2f, 0x62,
  0x69, 0x61, 0x73, 0x00, 0x04, 0x00, 0x00, 0x00, 0x01, 0x00, 0x00, 0x00,
  0x1a, 0x00, 0x00, 0x00, 0x1a, 0x00, 0x00, 0x00, 0x06, 0x00, 0x00, 0x00,
  0x6a, 0xfc, 0xff, 0xff, 0x00, 0x00, 0x00, 0x09, 0xc4, 0x00, 0x00, 0x00,
  0x08, 0x00, 0x00, 0x00, 0xa8, 0x00, 0x00, 0x00, 0x04, 0x00, 0x00, 0x00,
  0xd4, 0xfb, 0xff, 0xff, 0x80, 0x00, 0x00, 0x00, 0x60, 0x00, 0x00, 0x00,
  0x40, 0x00, 0x00, 0x00, 0x04, 0x00, 0x00, 0x00, 0x06, 0x00, 0x00, 0x00,
  0x00, 0x00, 0x00, 0x00, 0x00, 0x00, 0x00, 0x00, 0x00, 0x00, 0x00, 0x00,
  0x00, 0x00, 0x00, 0x00, 0x00, 0x00, 0x00, 0x00, 0x00, 0x00, 0x00, 0x00,
  0x00, 0x00, 0x00, 0x00, 0x00, 0x00, 0x00, 0x00, 0x00, 0x00, 0x00, 0x00,
  0x00, 0x00, 0x00, 0x00, 0x00, 0x00, 0x00, 0x00, 0x00, 0x00, 0x00, 0x00,
  0x00, 0x00, 0x00, 0x00, 0x06, 0x00, 0x00, 0x00, 0x71, 0x23, 0xd0, 0x3b,
  0x3b, 0xcd, 0xf8, 0x3b, 0x77, 0x78, 0xcb, 0x3b, 0x37, 0xc5, 0x84, 0x3c,
  0xc9, 0x27, 0xea, 0x3b, 0xbb, 0x69, 0x14, 0x3c, 0x06, 0x00, 0x00, 0x00,
  0x2a, 0x83, 0x4e, 0x3f, 0xa1, 0xdb, 0x76, 0x3f, 0x9b, 0x95, 0xf8, 0x3e,
  0xa6, 0x33, 0x12, 0x3f, 0x01, 0x10, 0x20, 0x3f, 0xe8, 0x40, 0x93, 0x3f,
  0x06, 0x00, 0x00, 0x00, 0x9b, 0xbc, 0x11, 0xbf, 0x27, 0x4e, 0xf2, 0xbe,
  0x86, 0xe1, 0x49, 0xbf, 0xad, 0xbb, 0x03, 0xc0, 0x79, 0x53, 0x68, 0xbf,
  0x91, 0x07, 0x16, 0xbf, 0x0d, 0x00, 0x00, 0x00, 0x73, 0x74, 0x64, 0x2e,
  0x63, 0x6f, 0x6e, 0x73, 0x74, 0x61, 0x6e, 0x74, 0x33, 0x00, 0x00, 0x00,
  0x04, 0x00, 0x00, 0x00, 0x06, 0x00, 0x00, 0x00, 0x03, 0x00, 0x00, 0x00,
  0x03, 0x00, 0x00, 0x00, 0x06, 0x00, 0x00, 0x00, 0x4a, 0xfd, 0xff, 0xff,
  0x00, 0x00, 0x00, 0x09, 0xc4, 0x00, 0x00, 0x00, 0x07, 0x00, 0x00, 0x00,
  0xa8, 0x00, 0x00, 0x00, 0x04, 0x00, 0x00, 0x00, 0xb4, 0xfc, 0xff, 0xff,
  0x80, 0x00, 0x00, 0x00, 0x60, 0x00, 0x00, 0x00, 0x40, 0x00, 0x00, 0x00,
  0x04, 0x00, 0x00, 0x00, 0x06, 0x00, 0x00, 0x00, 0x00, 0x00, 0x00, 0x00,
  0x00, 0x00, 0x00, 0x00, 0x00, 0x00, 0x00, 0x00, 0x00, 0x00, 0x00, 0x00,
  0x00, 0x00, 0x00, 0x00, 0x00, 0x00, 0x00, 0x00, 0x00, 0x00, 0x00, 0x00,
  0x00, 0x00, 0x00, 0x00, 0x00, 0x00, 0x00, 0x00, 0x00, 0x00, 0x00, 0x00,
  0x00, 0x00, 0x00, 0x00, 0x00, 0x00, 0x00, 0x00, 0x00, 0x00, 0x00, 0x00,
  0x06, 0x00, 0x00, 0x00, 0xf6, 0x95, 0xe1, 0x3b, 0x27, 0x21, 0xdb, 0x3b,
  0x5c, 0x0b, 0xa3, 0x3b, 0xef, 0x88, 0xa4, 0x3b, 0x31, 0xbc, 0xa1, 0x3c,
  0x20, 0x0c, 0x6c, 0x3b, 0x06, 0x00, 0x00, 0x00, 0xca, 0xd2, 0x5f, 0x3f,
  0x99, 0x17, 0x43, 0x3f, 0x45, 0xc5, 0x21, 0x3f, 0xdd, 0x3f, 0x23, 0x3f,
  0x96, 0xcc, 0x31, 0x3f, 0x08, 0x34, 0xea, 0x3e, 0x06, 0x00, 0x00, 0x00,
  0x8c, 0x06, 0xea, 0xbe, 0xe5, 0x6a, 0x59, 0xbf, 0xe7, 0x30, 0xdf, 0xbe,
  0x96, 0xb5, 0x8e, 0xbe, 0xb9, 0x78, 0x20, 0xc0, 0x54, 0x5f, 0x29, 0xbd,
  0x0d, 0x00, 0x00, 0x00, 0x73, 0x74, 0x64, 0x2e, 0x63, 0x6f, 0x6e, 0x73,
  0x74, 0x61, 0x6e, 0x74, 0x32, 0x00, 0x00, 0x00, 0x04, 0x00, 0x00, 0x00,
  0x06, 0x00, 0x00, 0x00, 0x03, 0x00, 0x00, 0x00, 0x03, 0x00, 0x00, 0x00,
  0x01, 0x00, 0x00, 0x00, 0x2a, 0xfe, 0xff, 0xff, 0x00, 0x00, 0x00, 0x09,
  0x60, 0x00, 0x00, 0x00, 0x06, 0x00, 0x00, 0x00, 0x44, 0x00, 0x00, 0x00,
  0x04, 0x00, 0x00, 0x00, 0x94, 0xfd, 0xff, 0xff, 0x30, 0x00, 0x00, 0x00,
  0x24, 0x00, 0x00, 0x00, 0x18, 0x00, 0x00, 0x00, 0x04, 0x00, 0x00, 0x00,
  0x01, 0x00, 0x00, 0x00, 0x00, 0x00, 0x00, 0x00, 0x00, 0x00, 0x00, 0x00,
  0x00, 0x00, 0x00, 0x00, 0x01, 0x00, 0x00, 0x00, 0xa0, 0xb5, 0xb4, 0x3c,
  0x01, 0x00, 0x00, 0x00, 0x7e, 0x57, 0x87, 0x3f, 0x01, 0x00, 0x00, 0x00,
  0x35, 0x4c, 0x33, 0xc0, 0x0d, 0x00, 0x00, 0x00, 0x73, 0x74, 0x64, 0x2e,
  0x63, 0x6f, 0x6e, 0x73, 0x74, 0x61, 0x6e, 0x74, 0x31, 0x00, 0x00, 0x00,
  0x02, 0x00, 0x00, 0x00, 0x0a, 0x00, 0x00, 0x00, 0xd6, 0x02, 0x00, 0x00,
  0x9e, 0xfe, 0xff, 0xff, 0x00, 0x00, 0x00, 0x02, 0x2c, 0x00, 0x00, 0x00,
  0x05, 0x00, 0x00, 0x00, 0x10, 0x00, 0x00, 0x00, 0x08, 0x00, 0x00, 0x00,
  0x04, 0x00, 0x04, 0x00, 0x04, 0x00, 0x00, 0x00, 0x0c, 0x00, 0x00, 0x00,
  0x73, 0x74, 0x64, 0x2e, 0x63, 0x6f, 0x6e, 0x73, 0x74, 0x61, 0x6e, 0x74,
  0x00, 0x00, 0x00, 0x00, 0x01, 0x00, 0x00, 0x00, 0x02, 0x00, 0x00, 0x00,
  0xda, 0xfe, 0xff, 0xff, 0x00, 0x00, 0x00, 0x02, 0x80, 0x00, 0x00, 0x00,
  0x04, 0x00, 0x00, 0x00, 0x68, 0x00, 0x00, 0x00, 0x04, 0x00, 0x00, 0x00,
  0xcc, 0xfe, 0xff, 0xff, 0x40, 0x00, 0x00, 0x00, 0x04, 0x00, 0x00, 0x00,
  0x06, 0x00, 0x00, 0x00, 0x00, 0x00, 0x00, 0x00, 0x00, 0x00, 0x00, 0x00,
  0x00, 0x00, 0x00, 0x00, 0x00, 0x00, 0x00, 0x00, 0x00, 0x00, 0x00, 0x00,
  0x00, 0x00, 0x00, 0x00, 0x00, 0x00, 0x00, 0x00, 0x00, 0x00, 0x00, 0x00,
  0x00, 0x00, 0x00, 0x00, 0x00, 0x00, 0x00, 0x00, 0x00, 0x00, 0x00, 0x00,
  0x00, 0x00, 0x00, 0x00, 0x00, 0x00, 0x00, 0x00, 0x06, 0x00, 0x00, 0x00,
  0x6f, 0x78, 0xe2, 0x37, 0x25, 0xfd, 0xdb, 0x37, 0x0c, 0xaf, 0xa3, 0x37,
  0x1e, 0x2e, 0xa5, 0x37, 0x90, 0x5e, 0xa2, 0x38, 0x1a, 0xf9, 0x6c, 0x37,
  0x0b, 0x00, 0x00, 0x00, 0x63, 0x6f, 0x6e, 0x76, 0x32, 0x64, 0x2f, 0x62,
  0x69, 0x61, 0x73, 0x00, 0x01, 0x00, 0x00, 0x00, 0x06, 0x00, 0x00, 0x00,
  0x6a, 0xff, 0xff, 0xff, 0x00, 0x00, 0x00, 0x02, 0x84, 0x00, 0x00, 0x00,
  0x03, 0x00, 0x00, 0x00, 0x68, 0x00, 0x00, 0x00, 0x04, 0x00, 0x00, 0x00,
  0x5c, 0xff, 0xff, 0xff, 0x40, 0x00, 0x00, 0x00, 0x04, 0x00, 0x00, 0x00,
  0x06, 0x00, 0x00, 0x00, 0x00, 0x00, 0x00, 0x00, 0x00, 0x00, 0x00, 0x00,
  0x00, 0x00, 0x00, 0x00, 0x00, 0x00, 0x00, 0x00, 0x00, 0x00, 0x00, 0x00,
  0x00, 0x00, 0x00, 0x00, 0x00, 0x00, 0x00, 0x00, 0x00, 0x00, 0x00, 0x00,
  0x00, 0x00, 0x00, 0x00, 0x00, 0x00, 0x00, 0x00, 0x00, 0x00, 0x00, 0x00,
  0x00, 0x00, 0x00, 0x00, 0x00, 0x00, 0x00, 0x00, 0x06, 0x00, 0x00, 0x00,
  0x25, 0x70, 0x41, 0x38, 0xb7, 0x3a, 0x67, 0x38, 0x91, 0x19, 0x3d, 0x38,
  0x42, 0xc9, 0xf6, 0x38, 0x15, 0x9e, 0x59, 0x38, 0x50, 0xee, 0x89, 0x38,
  0x0d, 0x00, 0x00, 0x00, 0x63, 0x6f, 0x6e, 0x76, 0x32, 0x64, 0x5f, 0x31,
  0x2f, 0x62, 0x69, 0x61, 0x73, 0x00, 0x00, 0x00, 0x01, 0x00, 0x00, 0x00,
  0x06, 0x00, 0x00, 0x00, 0x00, 0x00, 0x0e, 0x00, 0x18, 0x00, 0x08, 0x00,
  0x07, 0x00, 0x0c, 0x00, 0x10, 0x00, 0x14, 0x00, 0x0e, 0x00, 0x00, 0x00,
  0x00, 0x00, 0x00, 0x02, 0x4c, 0x00, 0x00, 0x00, 0x02, 0x00, 0x00, 0x00,
  0x34, 0x00, 0x00, 0x00, 0x10, 0x00, 0x00, 0x00, 0x0c, 0x00, 0x0c, 0x00,
  0x00, 0x00, 0x00, 0x00, 0x04, 0x00, 0x08, 0x00, 0x0c, 0x00, 0x00, 0x00,
  0x14, 0x00, 0x00, 0x00, 0x04, 0x00, 0x00, 0x00, 0x01, 0x00, 0x00, 0x00,
  0x00, 0x00, 0x00, 0x00, 0x00, 0x00, 0x00, 0x00, 0x01, 0x00, 0x00, 0x00,
  0x35, 0x5f, 0xbc, 0x39, 0x0a, 0x00, 0x00, 0x00, 0x64, 0x65, 0x6e, 0x73,
  0x65, 0x2f, 0x62, 0x69, 0x61, 0x73, 0x00, 0x00, 0x01, 0x00, 0x00, 0x00,
  0x0a, 0x00, 0x00, 0x00, 0x14, 0x00, 0x1c, 0x00, 0x08, 0x00, 0x07, 0x00,
  0x0c, 0x00, 0x10, 0x00, 0x14, 0x00, 0x00, 0x00, 0x00, 0x00, 0x18, 0x00,
  0x14, 0x00, 0x00, 0x00, 0x00, 0x00, 0x00, 0x09, 0x90, 0x00, 0x00, 0x00,
  0x01, 0x00, 0x00, 0x00, 0x64, 0x00, 0x00, 0x00, 0x28, 0x00, 0x00, 0x00,
  0x04, 0x00, 0x00, 0x00, 0x04, 0x00, 0x00, 0x00, 0xff, 0xff, 0xff, 0xff,
  0x1c, 0x00, 0x00, 0x00, 0x1c, 0x00, 0x00, 0x00, 0x01, 0x00, 0x00, 0x00,
  0x0c, 0x00, 0x14, 0x00, 0x04, 0x00, 0x08, 0x00, 0x0c, 0x00, 0x10, 0x00,
  0x0c, 0x00, 0x00, 0x00, 0x2c, 0x00, 0x00, 0x00, 0x20, 0x00, 0x00, 0x00,
  0x14, 0x00, 0x00, 0x00, 0x04, 0x00, 0x00, 0x00, 0x01, 0x00, 0x00, 0x00,
  0x80, 0xff, 0xff, 0xff, 0xff, 0xff, 0xff, 0xff, 0x01, 0x00, 0x00, 0x00,
  0x81, 0x80, 0x80, 0x3b, 0x01, 0x00, 0x00, 0x00, 0x00, 0x00, 0x80, 0x3f,
  0x01, 0x00, 0x00, 0x00, 0x00, 0x00, 0x00, 0x00, 0x1e, 0x00, 0x00, 0x00,
  0x73, 0x65, 0x72, 0x76, 0x69, 0x6e, 0x67, 0x5f, 0x64, 0x65, 0x66, 0x61,
  0x75, 0x6c, 0x74, 0x5f, 0x69, 0x6e, 0x70, 0x75, 0x74, 0x5f, 0x31, 0x3a,
  0x30, 0x5f, 0x69, 0x6e, 0x74, 0x38, 0x00, 0x00, 0x04, 0x00, 0x00, 0x00,
  0x01, 0x00, 0x00, 0x00, 0x1c, 0x00, 0x00, 0x00, 0x1c, 0x00, 0x00, 0x00,
  0x01, 0x00, 0x00, 0x00, 0x07, 0x00, 0x00, 0x00, 0x8c, 0x00, 0x00, 0x00,
  0x6c, 0x00, 0x00, 0x00, 0x5c, 0x00, 0x00, 0x00, 0x3c, 0x00, 0x00, 0x00,
  0x28, 0x00, 0x00, 0x00, 0x18, 0x00, 0x00, 0x00, 0x04, 0x00, 0x00, 0x00,
  0x9c, 0xff, 0xff, 0xff, 0x00, 0x00, 0x00, 0x06, 0x02, 0x00, 0x00, 0x00,
  0x06, 0x00, 0x00, 0x00, 0xd4, 0xff, 0xff, 0xff, 0x00, 0x00, 0x00, 0x72,
  0x72, 0x00, 0x00, 0x00, 0xb8, 0xff, 0xff, 0xff, 0x00, 0x00, 0x00, 0x19,
  0x02, 0x00, 0x00, 0x00, 0x19, 0x00, 0x00, 0x00, 0xc8, 0xff, 0xff, 0xff,
  0x00, 0x00, 0x00, 0x09, 0x04, 0x00, 0x00, 0x00, 0x09, 0x00, 0x00, 0x00,
  0x0c, 0x00, 0x0c, 0x00, 0x07, 0x00, 0x00, 0x00, 0x00, 0x00, 0x08, 0x00,
  0x0c, 0x00, 0x00, 0x00, 0x00, 0x00, 0x00, 0x16, 0x16, 0x00, 0x00, 0x00,
  0xf0, 0xff, 0xff, 0xff, 0x00, 0x00, 0x00, 0x11, 0x02, 0x00, 0x00, 0x00,
  0x11, 0x00, 0x00, 0x00, 0x0c, 0x00, 0x10, 0x00, 0x07, 0x00, 0x00, 0x00,
  0x08, 0x00, 0x0c, 0x00, 0x0c, 0x00, 0x00, 0x00, 0x00, 0x00, 0x00, 0x03,
  0x03, 0x00, 0x00, 0x00, 0x03, 0x00, 0x00, 0x00
};
unsigned int __mnist_model_tflite_len = 11408;